#include "model_data.h"

alignas(16) const unsigned char g_model[] = {
    0x1c, 0x00, 0x00, 0x00, 0x54, 0x46, 0x4c, 0x33, 0x14, 0x00, 0x20, 0x00,
    0x1c, 0x00, 0x18, 0x00, 0x14, 0x00, 0x10, 0x00, 0x0c, 0x00, 0x00, 0x00,
    0x08, 0x00, 0x04, 0x00, 0x14, 0x00, 0x00, 0x00, 0x1c, 0x00, 0x00, 0x00,
    0x98, 0x00, 0x00, 0x00, 0xf0, 0x00, 0x00, 0x00, 0xd8, 0x14, 0x00, 0x00,
    0xe8, 0x14, 0x00, 0x00, 0x68, 0x24, 0x00, 0x00, 0x03, 0x00, 0x00, 0x00,
    0x01, 0x00, 0x00, 0x00, 0x10, 0x00, 0x00, 0x00, 0x00, 0x00, 0x0a, 0x00,
    0x10, 0x00, 0x0c, 0x00, 0x08, 0x00, 0x04, 0x00, 0x0a, 0x00, 0x00, 0x00,
    0x0c, 0x00, 0x00, 0x00, 0x1c, 0x00, 0x00, 0x00, 0x3c, 0x00, 0x00, 0x00,
    0x0f, 0x00, 0x00, 0x00, 0x73, 0x65, 0x72, 0x76, 0x69, 0x6e, 0x67, 0x5f,
    0x64, 0x65, 0x66, 0x61, 0x75, 0x6c, 0x74, 0x00, 0x01, 0x00, 0x00, 0x00,
    0x04, 0x00, 0x00, 0x00, 0x90, 0xff, 0xff, 0xff, 0x09, 0x00, 0x00, 0x00,
    0x04, 0x00, 0x00, 0x00, 0x08, 0x00, 0x00, 0x00, 0x6f, 0x75, 0x74, 0x70,
    0x75, 0x74, 0x5f, 0x30, 0x00, 0x00, 0x00, 0x00, 0x01, 0x00, 0x00, 0x00,
    0x04, 0x00, 0x00, 0x00, 0xbe, 0xeb, 0xff, 0xff, 0x04, 0x00, 0x00, 0x00,
    0x0c, 0x00, 0x00, 0x00, 0x6b, 0x65, 0x72, 0x61, 0x73, 0x5f, 0x74, 0x65,
    0x6e, 0x73, 0x6f, 0x72, 0x00, 0x00, 0x00, 0x00, 0x02, 0x00, 0x00, 0x00,
    0x34, 0x00, 0x00, 0x00, 0x04, 0x00, 0x00, 0x00, 0xdc, 0xff, 0xff, 0xff,
    0x0c, 0x00, 0x00, 0x00, 0x04, 0x00, 0x00, 0x00, 0x13, 0x00, 0x00, 0x00,
    0x43, 0x4f, 0x4e, 0x56, 0x45, 0x52, 0x53, 0x49, 0x4f, 0x4e, 0x5f, 0x4d,
    0x45, 0x54, 0x41, 0x44, 0x41, 0x54, 0x41, 0x00, 0x08, 0x00, 0x0c, 0x00,
    0x08, 0x00, 0x04, 0x00, 0x08, 0x00, 0x00, 0x00, 0x0b, 0x00, 0x00, 0x00,
    0x04, 0x00, 0x00, 0x00, 0x13, 0x00, 0x00, 0x00, 0x6d, 0x69, 0x6e, 0x5f,
    0x72, 0x75, 0x6e, 0x74, 0x69, 0x6d, 0x65, 0x5f, 0x76, 0x65, 0x72, 0x73,
    0x69, 0x6f, 0x6e, 0x00, 0x0d, 0x00, 0x00, 0x00, 0xe4, 0x13, 0x00, 0x00,
    0xdc, 0x13, 0x00, 0x00, 0xc4, 0x13, 0x00, 0x00, 0x6c, 0x13, 0x00, 0x00,
    0xdc, 0x12, 0x00, 0x00, 0xcc, 0x0a, 0x00, 0x00, 0xbc, 0x09, 0x00, 0x00,
    0xac, 0x00, 0x00, 0x00, 0xa4, 0x00, 0x00, 0x00, 0x9c, 0x00, 0x00, 0x00,
    0x94, 0x00, 0x00, 0x00, 0x74, 0x00, 0x00, 0x00, 0x04, 0x00, 0x00, 0x00,
    0x6e, 0xec, 0xff, 0xff, 0x04, 0x00, 0x00, 0x00, 0x60, 0x00, 0x00, 0x00,
    0x0c, 0x00, 0x00, 0x00, 0x08, 0x00, 0x0e, 0x00, 0x08, 0x00, 0x04, 0x00,
    0x08, 0x00, 0x00, 0x00, 0x10, 0x00, 0x00, 0x00, 0x28, 0x00, 0x00, 0x00,
    0x00, 0x00, 0x06, 0x00, 0x08, 0x00, 0x04, 0x00, 0x06, 0x00, 0x00, 0x00,
    0x04, 0x00, 0x00, 0x00, 0x01, 0x00, 0x00, 0x00, 0xeb, 0x03, 0x00, 0x00,
    0x0c, 0x00, 0x18, 0x00, 0x14, 0x00, 0x10, 0x00, 0x0c, 0x00, 0x04, 0x00,
    0x0c, 0x00, 0x00, 0x00, 0x38, 0x6d, 0xd1, 0x6c, 0xc2, 0xfe, 0xde, 0xd8,
    0x02, 0x00, 0x00, 0x00, 0x02, 0x00, 0x00, 0x00, 0x04, 0x00, 0x00, 0x00,
    0x06, 0x00, 0x00, 0x00, 0x32, 0x2e, 0x32, 0x31, 0x2e, 0x30, 0x00, 0x00,
    0xda, 0xec, 0xff, 0xff, 0x04, 0x00, 0x00, 0x00, 0x10, 0x00, 0x00, 0x00,
    0x31, 0x2e, 0x31, 0x34, 0x2e, 0x30, 0x00, 0x00, 0x00, 0x00, 0x00, 0x00,
    0x00, 0x00, 0x00, 0x00, 0x60, 0xec, 0xff, 0xff, 0x64, 0xec, 0xff, 0xff,
    0x68, 0xec, 0xff, 0xff, 0x02, 0xed, 0xff, 0xff, 0x04, 0x00, 0x00, 0x00,
    0x00, 0x09, 0x00, 0x00, 0xc6, 0xa0, 0xae, 0xe9, 0xe8, 0x15, 0xe4, 0xf1,
    0xe9, 0xff, 0x1a, 0x81, 0xf3, 0xfc, 0xfb, 0xfd, 0xd9, 0xf4, 0xfa, 0xd1,
    0x1a, 0xf8, 0x23, 0x16, 0x08, 0xfc, 0x1b, 0x07, 0x1c, 0x22, 0xe4, 0x1e,
    0x2c, 0x07, 0x19, 0x0c, 0x10, 0xcc, 0xda, 0xe9, 0xb8, 0xc5, 0xfa, 0x10,
    0x0f, 0xee, 0xe6, 0xb6, 0x13, 0x35, 0x00, 0xec, 0xdc, 0xce, 0x00, 0xf8,
    0xf3, 0x0a, 0xed, 0xbc, 0xed, 0xe2, 0x11, 0xaa, 0x07, 0x03, 0xf9, 0xfb,
    0xfd, 0x7f, 0xc8, 0xec, 0x0e, 0x48, 0x3a, 0x46, 0x3e, 0x17, 0x58, 0x22,
    0x1e, 0x20, 0x0b, 0xfd, 0x04, 0x2b, 0x4a, 0x12, 0x00, 0x2b, 0xfd, 0x1a,
    0x3e, 0x1d, 0x08, 0x81, 0x04, 0x03, 0xff, 0x12, 0xf6, 0xc7, 0x03, 0x09,
    0x0e, 0xcb, 0xbc, 0xe1, 0xee, 0xd5, 0xf3, 0x3a, 0x1a, 0x1f, 0x81, 0xd8,
    0xa6, 0xc4, 0xff, 0x2a, 0xa7, 0xda, 0xef, 0xd1, 0x45, 0x3f, 0xeb, 0xd9,
    0x0a, 0xfd, 0x21, 0x58, 0xf4, 0x11, 0x01, 0xfd, 0x0b, 0x45, 0xd5, 0xfe,
    0xa4, 0x1d, 0x3a, 0x22, 0x07, 0xfa, 0x0d, 0xa2, 0x0c, 0xcc, 0x4b, 0xf9,
    0x10, 0x37, 0xfb, 0x90, 0x7f, 0x79, 0x45, 0x2b, 0xf1, 0x2f, 0x47, 0x05,
    0x0a, 0x14, 0xe5, 0xe5, 0x2d, 0x0d, 0xfa, 0xf9, 0x23, 0x1c, 0x0c, 0xf7,
    0xff, 0x2a, 0x85, 0xec, 0xfa, 0x10, 0x37, 0xfa, 0x07, 0x00, 0xe2, 0x10,
    0x14, 0x07, 0xff, 0x02, 0xfa, 0xe7, 0xe9, 0xf3, 0xdf, 0xe5, 0xeb, 0xcd,
    0xdc, 0xd3, 0xea, 0xda, 0xa6, 0xaa, 0xb6, 0xc6, 0xf5, 0xf2, 0xcb, 0x81,
    0xcb, 0xda, 0xe1, 0xd5, 0xee, 0xdd, 0xeb, 0xd3, 0xc7, 0x81, 0xbf, 0xf6,
    0xe7, 0xd0, 0xd0, 0xb8, 0xda, 0xd0, 0xc3, 0xf0, 0xef, 0xbc, 0xf0, 0x0c,
    0xf0, 0xe9, 0xee, 0xea, 0xff, 0xf7, 0xf1, 0xe6, 0xd5, 0xc8, 0xfc, 0x07,
    0xea, 0xe1, 0xfb, 0x06, 0xff, 0x0a, 0x1f, 0xbc, 0xe1, 0xca, 0x14, 0x07,
    0x11, 0x0b, 0xfb, 0xc4, 0x12, 0x00, 0xf4, 0x09, 0x00, 0xea, 0x02, 0xf7,
    0x12, 0xe4, 0xcc, 0xda, 0x00, 0xf9, 0xe6, 0xe7, 0x05, 0x09, 0xed, 0x05,
    0xdb, 0xe5, 0x81, 0x00, 0xe8, 0x81, 0x88, 0xb8, 0xa1, 0xbe, 0xf3, 0xf1,
    0x98, 0xb7, 0xcc, 0xd0, 0xd2, 0xd4, 0xfe, 0xe6, 0xfd, 0xea, 0x19, 0x3a,
    0xdf, 0x56, 0x3f, 0xbd, 0x18, 0x0e, 0x07, 0x38, 0x02, 0xf6, 0x1c, 0x15,
    0x28, 0x29, 0x2a, 0x18, 0xfa, 0xe2, 0xec, 0xe8, 0x0c, 0x0f, 0xcf, 0xf9,
    0xdf, 0xe2, 0x01, 0x07, 0xe2, 0xe7, 0xf9, 0xed, 0xec, 0xec, 0xb3, 0xbb,
    0xec, 0xfd, 0xc2, 0x1d, 0x81, 0xaa, 0xf4, 0xe6, 0xfd, 0xfd, 0xbe, 0xb2,
    0xee, 0xf5, 0xc6, 0xfd, 0xe2, 0xd6, 0xc2, 0x8f, 0x81, 0xba, 0xe1, 0xf3,
    0xce, 0x03, 0xc5, 0xb8, 0xe2, 0xf1, 0xeb, 0xfe, 0xf1, 0xda, 0xf1, 0xda,
    0xea, 0xe9, 0xee, 0xca, 0x0a, 0x00, 0xf7, 0xd7, 0xfe, 0x06, 0x16, 0xf9,
    0xfa, 0xe7, 0xef, 0xe9, 0x01, 0xff, 0x00, 0x05, 0x08, 0x27, 0xff, 0x08,
    0xe7, 0x22, 0xf8, 0x56, 0x13, 0xfd, 0x10, 0x2d, 0x32, 0x19, 0xa9, 0x63,
    0x82, 0x3e, 0x50, 0x12, 0x81, 0xcc, 0xde, 0x24, 0x03, 0x00, 0xea, 0xe1,
    0xf9, 0x0e, 0xab, 0x22, 0xba, 0xd0, 0xf6, 0xee, 0xf3, 0xe7, 0xae, 0xf6,
    0x02, 0xfd, 0xfd, 0x08, 0xd0, 0xe6, 0xe9, 0x1c, 0x16, 0x31, 0xdb, 0x0c,
    0x81, 0x5f, 0x43, 0x28, 0xe7, 0x06, 0x29, 0x45, 0x13, 0xe7, 0xf5, 0xdc,
    0xc3, 0x5d, 0x1c, 0x1f, 0xe1, 0x81, 0x81, 0xd4, 0xb3, 0xd8, 0x03, 0xda,
    0xa2, 0xed, 0xc4, 0xd2, 0xdd, 0xeb, 0xff, 0x14, 0xf0, 0xd9, 0x08, 0xec,
    0xd9, 0xb7, 0xf1, 0x04, 0x35, 0x30, 0x1a, 0x6b, 0x27, 0x31, 0x10, 0x30,
    0x19, 0x0b, 0x2d, 0x1e, 0xe7, 0xbf, 0xb1, 0x10, 0xfa, 0x02, 0x10, 0xf2,
    0xe1, 0x1c, 0x0e, 0xff, 0x00, 0xfb, 0xed, 0x42, 0x81, 0x14, 0xed, 0xfd,
    0x0a, 0x27, 0x35, 0x15, 0x5d, 0xf0, 0xec, 0x0e, 0x0b, 0x02, 0x13, 0x04,
    0x0c, 0x0c, 0x0f, 0x0d, 0xc4, 0xa0, 0xf2, 0xf9, 0xe8, 0xed, 0xc2, 0xcd,
    0xf2, 0xff, 0x09, 0x0f, 0xf0, 0xed, 0xfc, 0x0c, 0x81, 0x26, 0xf7, 0xe4,
    0xfd, 0x1e, 0x24, 0x09, 0x08, 0xe1, 0xf5, 0xf0, 0x21, 0x1b, 0xfd, 0x0c,
    0x13, 0x07, 0x1d, 0x14, 0xec, 0xe6, 0x0c, 0xd4, 0x0c, 0xe6, 0xaa, 0xe5,
    0xf1, 0x08, 0x0c, 0x07, 0x81, 0xd4, 0x01, 0xf3, 0x06, 0x28, 0xad, 0xe7,
    0x01, 0xdf, 0x36, 0x3b, 0xe1, 0xf0, 0x0b, 0x46, 0xfe, 0x21, 0xf3, 0xeb,
    0xc3, 0x43, 0x29, 0x2a, 0xfe, 0x3f, 0x4e, 0x59, 0x3e, 0x51, 0x08, 0x16,
    0x13, 0x29, 0x29, 0x1e, 0xda, 0x5d, 0x54, 0x50, 0x1c, 0x4d, 0x35, 0xa7,
    0xdb, 0xcc, 0x04, 0xe1, 0xc9, 0xc0, 0xec, 0xe4, 0xf3, 0x2b, 0xb8, 0x81,
    0xc9, 0x02, 0xee, 0xe6, 0xf0, 0xe2, 0xfa, 0xf5, 0x1b, 0x06, 0xc5, 0xeb,
    0xf6, 0xdf, 0xf7, 0x16, 0x81, 0xbe, 0x03, 0xfe, 0x02, 0x2b, 0xcd, 0xdb,
    0xed, 0x0b, 0x13, 0x30, 0xf2, 0x19, 0x25, 0x24, 0xfc, 0x31, 0xf4, 0xca,
    0xb4, 0x4e, 0x33, 0x07, 0xef, 0xe4, 0x05, 0xce, 0xe0, 0x11, 0xe5, 0xf4,
    0xf2, 0xdf, 0xfb, 0x04, 0xf3, 0xf3, 0x01, 0xfa, 0x10, 0xfd, 0x03, 0x2b,
    0x81, 0x26, 0x20, 0x0f, 0xf5, 0x05, 0x07, 0x16, 0x0b, 0x14, 0x00, 0xff,
    0xf0, 0x24, 0x19, 0x17, 0xf9, 0xf0, 0xf6, 0x0a, 0xd0, 0x12, 0xcc, 0x03,
    0x09, 0xcc, 0x10, 0x23, 0x81, 0xec, 0x02, 0x1c, 0x23, 0x31, 0xbe, 0xee,
    0x03, 0xbc, 0x28, 0x1f, 0xe2, 0xf2, 0xfb, 0x1e, 0x01, 0x15, 0xf4, 0xf5,
    0xe1, 0x1a, 0x28, 0x12, 0x01, 0x38, 0x3a, 0x0f, 0x1c, 0x11, 0x1a, 0x14,
    0x28, 0x0d, 0x02, 0x11, 0x0f, 0x2f, 0x32, 0x19, 0xd9, 0x07, 0xd2, 0xc1,
    0xc8, 0xd2, 0xd6, 0xf1, 0x81, 0xac, 0xb9, 0xc6, 0xfc, 0xdd, 0x9d, 0x92,
    0xb8, 0xca, 0xb4, 0xe2, 0xe7, 0xbc, 0xe7, 0xf2, 0xf8, 0x17, 0xcf, 0xe4,
    0xf1, 0x04, 0xf5, 0xfb, 0xf5, 0xdf, 0xf3, 0xe9, 0x07, 0x1e, 0xff, 0xf8,
    0xf4, 0xfb, 0x09, 0x16, 0x0e, 0x00, 0xff, 0x08, 0x0d, 0x2b, 0x81, 0x16,
    0xe0, 0x1a, 0x26, 0x17, 0xdb, 0xc8, 0xa6, 0x48, 0x38, 0x1c, 0xdb, 0xf7,
    0xd8, 0xf4, 0x2d, 0x12, 0xda, 0xd7, 0xe7, 0x17, 0xf7, 0x0a, 0x85, 0x90,
    0xd6, 0xd7, 0xd3, 0x13, 0x81, 0xc7, 0xf0, 0x0b, 0xfb, 0x02, 0xab, 0x8f,
    0xff, 0x91, 0xf3, 0xee, 0xe4, 0xa8, 0x93, 0x98, 0x81, 0x99, 0xd4, 0x06,
    0x09, 0xc3, 0xb0, 0x9b, 0x9e, 0xb8, 0xdb, 0xf7, 0x05, 0xcd, 0x44, 0x45,
    0xfe, 0x20, 0xa8, 0xf6, 0x19, 0x10, 0x15, 0x36, 0x21, 0xb5, 0x0d, 0x14,
    0x17, 0x3e, 0xf5, 0xd6, 0xff, 0xfe, 0xec, 0xff, 0xfd, 0x16, 0x81, 0x01,
    0xfc, 0xff, 0xfe, 0x0d, 0xf2, 0xf8, 0xf6, 0xf7, 0x00, 0x14, 0xf2, 0xde,
    0xf2, 0xea, 0xff, 0xfe, 0xef, 0xfb, 0xf9, 0x01, 0x01, 0x04, 0xf7, 0x00,
    0xf0, 0xf0, 0x02, 0x02, 0xe3, 0xd2, 0xf1, 0xef, 0xe1, 0x07, 0x9f, 0xe7,
    0xf4, 0xe8, 0x33, 0x0b, 0x81, 0xc3, 0x05, 0xde, 0x2a, 0x1a, 0xbb, 0xec,
    0xfc, 0xd6, 0x24, 0x3f, 0xca, 0xf9, 0xdd, 0x37, 0xef, 0x19, 0xe6, 0xda,
    0xe2, 0x20, 0x1d, 0x28, 0xc2, 0x92, 0xac, 0xe7, 0x19, 0x1a, 0x83, 0xc9,
    0x21, 0xcc, 0x06, 0x12, 0x81, 0x8e, 0xd2, 0x1c, 0x50, 0x45, 0xe0, 0xa6,
    0xc1, 0xd6, 0x18, 0x10, 0x0b, 0x28, 0x0c, 0x05, 0x14, 0x32, 0xa0, 0xbb,
    0x04, 0xfe, 0x29, 0x1d, 0xd5, 0xd2, 0xff, 0x02, 0xe3, 0x22, 0xd8, 0xe0,
    0xef, 0xef, 0xfd, 0x09, 0xf7, 0xfb, 0x01, 0xeb, 0x0c, 0xfb, 0xfb, 0xff,
    0xf3, 0xfa, 0x0a, 0x10, 0x00, 0xfa, 0x06, 0x14, 0x03, 0x1c, 0x07, 0x91,
    0x7f, 0xff, 0x1d, 0x13, 0xe3, 0xcf, 0xea, 0xd2, 0xa4, 0xbf, 0xdc, 0xff,
    0x02, 0xfd, 0xf2, 0xad, 0x10, 0x48, 0x1c, 0x00, 0xed, 0xc1, 0x13, 0xf6,
    0xfa, 0xcb, 0xa3, 0x81, 0x14, 0xf9, 0xf9, 0xed, 0xfc, 0xf6, 0xf0, 0x0d,
    0xfb, 0xe7, 0xf9, 0xe7, 0xb7, 0x81, 0xe7, 0xfd, 0xcc, 0xf2, 0xc4, 0xb7,
    0xc4, 0xdb, 0x2c, 0x3d, 0xf5, 0xf0, 0xfa, 0xf0, 0xb0, 0x13, 0xea, 0x23,
    0xf4, 0x46, 0x2c, 0x24, 0x13, 0x8e, 0xa2, 0x17, 0x1c, 0x1b, 0xea, 0x42,
    0xf9, 0x24, 0x25, 0x1c, 0xea, 0xda, 0xf2, 0xf3, 0x06, 0x19, 0xb2, 0xf2,
    0x00, 0xfd, 0xd1, 0x08, 0x81, 0xe6, 0x16, 0xb0, 0x47, 0x10, 0xbb, 0xe7,
    0x09, 0xe1, 0x3c, 0x1b, 0xe6, 0x00, 0xfc, 0xec, 0x09, 0x05, 0xf6, 0xd7,
    0x03, 0xda, 0x2e, 0x2c, 0x04, 0xa2, 0xe3, 0xf4, 0xde, 0xb8, 0xe5, 0x02,
    0xf6, 0xd1, 0x0f, 0x0b, 0xea, 0xf7, 0xf6, 0x12, 0xe9, 0xdb, 0xfa, 0xe3,
    0x81, 0xfd, 0xf3, 0xef, 0xdb, 0xfc, 0xff, 0xe8, 0xf7, 0xf8, 0x04, 0xe8,
    0xef, 0xe6, 0x06, 0x10, 0x15, 0x5d, 0x55, 0x71, 0x5d, 0x47, 0x2b, 0x18,
    0x44, 0x30, 0x18, 0x11, 0xdf, 0x1d, 0x7f, 0x6f, 0x17, 0xf9, 0x0a, 0x0a,
    0x61, 0x59, 0xa3, 0x53, 0x1f, 0xfd, 0xfb, 0xfa, 0xef, 0x9f, 0x9c, 0xab,
    0x31, 0xf8, 0x9d, 0xb1, 0xaf, 0x81, 0xec, 0xf7, 0xf9, 0xfb, 0xc2, 0xc4,
    0xec, 0x2e, 0xc8, 0xc7, 0xf3, 0xec, 0xf4, 0xc3, 0xe4, 0x59, 0xfe, 0x09,
    0xe9, 0x1a, 0x16, 0x07, 0xc7, 0xf6, 0xfd, 0x12, 0x03, 0x1d, 0xf9, 0x1e,
    0x12, 0x0e, 0x1b, 0x24, 0xf1, 0xaa, 0x1f, 0x0a, 0xfa, 0xff, 0xc8, 0xef,
    0x11, 0x81, 0x1e, 0xca, 0xeb, 0xd2, 0xf2, 0xfa, 0xe3, 0xe1, 0xf4, 0xe9,
    0xdd, 0x01, 0x27, 0x3a, 0x07, 0x08, 0x11, 0x15, 0x1c, 0x2c, 0x1a, 0xa9,
    0xfd, 0x25, 0x20, 0x26, 0x00, 0xe2, 0xfa, 0xf9, 0xfc, 0xf6, 0xfd, 0x09,
    0x03, 0x0a, 0x09, 0x0f, 0xfb, 0xfb, 0xfa, 0xab, 0x26, 0x81, 0xfc, 0xf6,
    0x03, 0x23, 0x13, 0x3c, 0x03, 0x07, 0x09, 0x10, 0x07, 0x0e, 0x01, 0x14,
    0x02, 0xf9, 0x00, 0x0e, 0x8f, 0x81, 0xae, 0xd1, 0xb8, 0xe7, 0xe1, 0xd7,
    0xc8, 0xb9, 0x03, 0xf9, 0xf9, 0xf6, 0x07, 0x15, 0xfb, 0xc7, 0x01, 0xe5,
    0x15, 0xf4, 0x36, 0x61, 0xbd, 0x07, 0x0c, 0x13, 0x3b, 0x48, 0x0e, 0x3a,
    0x5b, 0x15, 0x27, 0x1f, 0x03, 0x90, 0x81, 0xe4, 0xd9, 0xe9, 0x07, 0xf9,
    0xcc, 0xcb, 0xde, 0xe4, 0xef, 0x08, 0x05, 0xf0, 0xeb, 0xde, 0x0a, 0xe1,
    0xec, 0x1b, 0x15, 0x14, 0x16, 0x15, 0x09, 0x2a, 0x1a, 0x24, 0x16, 0x08,
    0x18, 0x07, 0x18, 0x1b, 0x02, 0xfa, 0x06, 0xf2, 0xf3, 0xf4, 0xda, 0xfe,
    0x02, 0xf8, 0xfa, 0x02, 0x7f, 0xc8, 0x05, 0xff, 0xfe, 0xfe, 0x0c, 0x15,
    0x0a, 0xf3, 0x04, 0x04, 0x17, 0xfd, 0x00, 0x1c, 0xf5, 0xe6, 0x05, 0xf9,
    0xff, 0xfe, 0x08, 0x1c, 0x03, 0x1d, 0x11, 0xdd, 0xd1, 0xf9, 0xd8, 0x05,
    0xfa, 0xe6, 0xe1, 0xec, 0xd5, 0xe8, 0xf6, 0xf3, 0xdb, 0xe2, 0xe1, 0xdb,
    0xfb, 0xd5, 0xc4, 0xf0, 0x97, 0xa5, 0xb3, 0xe9, 0x00, 0x18, 0xae, 0x81,
    0xe1, 0xe9, 0xac, 0xf6, 0xcb, 0x81, 0xa0, 0xc5, 0xb8, 0xe7, 0xfb, 0xb4,
    0xe3, 0x1d, 0xef, 0xf8, 0xda, 0xea, 0x09, 0xca, 0x01, 0xae, 0x22, 0xbf,
    0xf7, 0x36, 0x35, 0x57, 0x06, 0xd3, 0xe0, 0x2f, 0x09, 0x3b, 0x28, 0x1b,
    0xe6, 0x0f, 0x23, 0x1c, 0xc2, 0xb0, 0xf0, 0xf4, 0xf1, 0x06, 0x81, 0xc1,
    0xe2, 0xfc, 0xcf, 0xd1, 0xb4, 0xce, 0xfd, 0xf0, 0x36, 0x19, 0xfe, 0x8c,
    0xe5, 0x0c, 0x25, 0x39, 0xfc, 0x0c, 0x21, 0x3c, 0x11, 0x30, 0xd4, 0xf8,
    0xbd, 0x52, 0x32, 0x21, 0xe4, 0xb9, 0xf6, 0xde, 0xeb, 0xdc, 0x9b, 0xd5,
    0xef, 0xf0, 0xc9, 0x1d, 0x89, 0xd1, 0xfc, 0x27, 0x57, 0x7c, 0xd0, 0x97,
    0xc1, 0x16, 0x2d, 0x56, 0xe4, 0xe7, 0xe2, 0xed, 0x01, 0x2d, 0x10, 0xcd,
    0x7f, 0xf2, 0x36, 0x0f, 0xdd, 0xcd, 0xe1, 0xf1, 0xed, 0xf3, 0xd1, 0xae,
    0xfa, 0xde, 0x0a, 0x09, 0xe5, 0xf1, 0xe3, 0x09, 0x0c, 0xf6, 0xc1, 0xc5,
    0xcb, 0xe8, 0x9a, 0xe3, 0xa9, 0xde, 0xea, 0xe9, 0x17, 0x2b, 0x81, 0xd1,
    0xde, 0xb0, 0xb4, 0x00, 0x02, 0xd6, 0x73, 0xf2, 0xfe, 0xf3, 0xf0, 0x03,
    0xf0, 0x05, 0x14, 0xfc, 0xdd, 0x7f, 0x0d, 0x17, 0x0d, 0x1f, 0x06, 0xb1,
    0xd1, 0xee, 0xff, 0xe3, 0xf4, 0x23, 0x25, 0xdb, 0xf3, 0x28, 0xfd, 0xda,
    0xd8, 0xbb, 0xcb, 0x13, 0xfc, 0x81, 0xea, 0xe0, 0xed, 0xe8, 0xe7, 0x05,
    0xfa, 0xe8, 0x00, 0xfd, 0xf1, 0xea, 0xe5, 0xf8, 0x06, 0xaf, 0x00, 0xf3,
    0x1b, 0xf9, 0xf2, 0xec, 0x01, 0x14, 0x0c, 0xf0, 0x06, 0xfa, 0xff, 0x36,
    0x11, 0xe9, 0xef, 0xf8, 0xf0, 0xee, 0xbf, 0x9a, 0x96, 0xd1, 0xfa, 0xf7,
    0x05, 0xa1, 0xd3, 0xd7, 0xf6, 0xd3, 0x81, 0xda, 0xfe, 0x96, 0xf3, 0xd8,
    0xac, 0xd9, 0xfa, 0x2a, 0xf3, 0xda, 0xd5, 0xf2, 0x0e, 0x43, 0xdc, 0xfa,
    0x03, 0x08, 0x2d, 0x40, 0xf7, 0x10, 0x14, 0xfd, 0x0e, 0x02, 0xee, 0x0a,
    0x10, 0x03, 0x00, 0x08, 0xf5, 0xfe, 0x1b, 0xfe, 0xfd, 0x23, 0xff, 0x08,
    0xf0, 0xfb, 0xf8, 0x81, 0xf5, 0xf7, 0xf7, 0xe0, 0x0d, 0x25, 0xec, 0xdc,
    0xf8, 0x05, 0xfa, 0xed, 0xf2, 0x12, 0x81, 0x3c, 0x10, 0x04, 0xf0, 0x04,
    0x05, 0x0c, 0x02, 0x0d, 0xff, 0x01, 0xef, 0x0c, 0x06, 0x0c, 0xef, 0xf2,
    0xfb, 0xed, 0x11, 0x04, 0xd3, 0xe0, 0xfc, 0x04, 0xee, 0xeb, 0xcb, 0xf2,
    0xfc, 0xf7, 0xfd, 0x00, 0x1a, 0x09, 0x8a, 0x13, 0xed, 0xe8, 0x81, 0xf1,
    0xf0, 0xfc, 0x1c, 0x2b, 0xa0, 0x88, 0xa6, 0x18, 0x17, 0x0c, 0xfb, 0x29,
    0xe8, 0x2d, 0x37, 0x4f, 0xef, 0x82, 0xcb, 0x18, 0xf9, 0x07, 0xf9, 0x2e,
    0xea, 0x23, 0x0f, 0x17, 0xf2, 0xff, 0x1f, 0xce, 0xb3, 0xd9, 0x09, 0xff,
    0xf9, 0xf7, 0xcf, 0xc2, 0x0d, 0x1a, 0x0b, 0xe9, 0xb6, 0xb6, 0x03, 0x0f,
    0x16, 0xe5, 0xf4, 0xd5, 0xf3, 0xf7, 0x09, 0xef, 0x05, 0xfb, 0x1b, 0x1e,
    0x23, 0x81, 0xfc, 0xde, 0x0e, 0x53, 0x2c, 0x20, 0x13, 0x09, 0x58, 0x29,
    0x3b, 0x35, 0x1b, 0xf1, 0x33, 0x43, 0x53, 0x21, 0x0b, 0x15, 0x0e, 0x3a,
    0x39, 0x19, 0xf4, 0x0e, 0x01, 0x07, 0x10, 0x0c, 0xee, 0xd0, 0x10, 0x00,
    0x05, 0x0f, 0x81, 0xda, 0x06, 0x81, 0xfd, 0x03, 0x0e, 0x0b, 0x06, 0x05,
    0x0d, 0xea, 0xfa, 0xec, 0xfd, 0x00, 0x01, 0xf8, 0xd8, 0xd4, 0xf3, 0xf3,
    0xe1, 0x15, 0x18, 0x10, 0x06, 0x03, 0x04, 0x0b, 0x15, 0x1c, 0xff, 0xdf,
    0x08, 0x04, 0x11, 0x13, 0xf5, 0xd3, 0x05, 0x0e, 0x26, 0x1c, 0xca, 0xf3,
    0xf2, 0xe7, 0xe5, 0x12, 0xd0, 0x86, 0xc2, 0xe6, 0xff, 0xec, 0x87, 0xa1,
    0xd8, 0xd5, 0xfd, 0x26, 0x81, 0xc8, 0xe3, 0xf1, 0x06, 0x13, 0xde, 0xd1,
    0xe5, 0x13, 0x00, 0x1e, 0xf6, 0xb5, 0xcf, 0xe2, 0x81, 0x04, 0xf8, 0xfb,
    0xc0, 0xa7, 0x18, 0xfc, 0xf4, 0xf5, 0xf8, 0xf7, 0x34, 0xcd, 0xfa, 0x0c,
    0xe2, 0x11, 0x04, 0x26, 0x07, 0x11, 0x00, 0x1e, 0xf2, 0x10, 0x10, 0x0b,
    0x0f, 0x19, 0x08, 0x15, 0xd9, 0x81, 0xc9, 0xef, 0xf3, 0xe0, 0xdd, 0xda,
    0xcc, 0xe5, 0xf8, 0xed, 0xe2, 0xf2, 0xfb, 0xf8, 0xd8, 0xf4, 0xf6, 0xe6,
    0xed, 0xf7, 0xf1, 0xed, 0x15, 0xfb, 0xfb, 0xf3, 0x10, 0x0d, 0x09, 0x18,
    0x0d, 0xfb, 0x0e, 0x0f, 0xfc, 0xfa, 0xdf, 0x03, 0xd6, 0xf6, 0xfc, 0x17,
    0x2d, 0x11, 0xfe, 0xf5, 0x0c, 0x81, 0x0b, 0x02, 0xe7, 0xf5, 0xfe, 0x57,
    0x0d, 0x03, 0x18, 0xea, 0xf1, 0x0f, 0x0e, 0x06, 0x1a, 0x2b, 0x01, 0x0a,
    0x17, 0xec, 0x06, 0x0f, 0xf3, 0xdb, 0x4b, 0xed, 0x0f, 0x04, 0x13, 0xeb,
    0xf0, 0x01, 0x00, 0xee, 0xee, 0x11, 0x71, 0x3c, 0x0c, 0xec, 0xf9, 0xf4,
    0x21, 0x18, 0x0f, 0xdf, 0xe9, 0x06, 0x08, 0xfa, 0xfd, 0x24, 0x18, 0xe4,
    0xf4, 0xdb, 0x3c, 0x81, 0xfc, 0xf2, 0xf8, 0x08, 0xe5, 0x7f, 0x23, 0x02,
    0x08, 0x13, 0xf7, 0xee, 0x34, 0x35, 0x53, 0x20, 0x04, 0x11, 0x1e, 0x4c,
    0x4a, 0x25, 0xea, 0x0f, 0x28, 0xd7, 0xf4, 0x09, 0xef, 0xb6, 0x06, 0x03,
    0x18, 0xd6, 0xba, 0xbd, 0xbc, 0x81, 0xd6, 0xfa, 0xed, 0x17, 0x8d, 0xb0,
    0xe8, 0xdc, 0x03, 0x16, 0xda, 0xd9, 0xef, 0xdc, 0xe9, 0x35, 0xee, 0xe6,
    0x07, 0xfc, 0xe4, 0x04, 0xeb, 0xfb, 0xb2, 0xba, 0x04, 0xfe, 0x2e, 0xea,
    0xe7, 0x70, 0x01, 0x00, 0xef, 0xd5, 0xfa, 0x17, 0xe6, 0x1a, 0xb4, 0xd6,
    0xe0, 0xaf, 0x04, 0x16, 0x85, 0xcc, 0xfe, 0xcc, 0x26, 0x16, 0xdc, 0xd9,
    0xa6, 0x18, 0x12, 0x31, 0xf6, 0x17, 0x32, 0x10, 0x12, 0x3e, 0xf9, 0x8e,
    0x7f, 0x18, 0x36, 0xff, 0xeb, 0xee, 0xfc, 0xfa, 0xf6, 0xf5, 0xe2, 0xfa,
    0xf8, 0x07, 0x01, 0x07, 0xeb, 0xf0, 0xfe, 0x03, 0x1d, 0x23, 0xf8, 0xf9,
    0x05, 0xee, 0x13, 0x15, 0xfc, 0x09, 0x0e, 0x05, 0xeb, 0x08, 0xf1, 0x14,
    0x81, 0x63, 0x05, 0x0f, 0xff, 0xf7, 0xff, 0xe5, 0x24, 0xfe, 0xf8, 0x08,
    0x0f, 0x13, 0xf8, 0x01, 0xff, 0x0d, 0x81, 0x36, 0x15, 0x0d, 0xfa, 0x03,
    0x3a, 0x0d, 0x02, 0x08, 0xfc, 0xf6, 0xfa, 0xf0, 0xf8, 0xec, 0x08, 0x00,
    0xf9, 0xf8, 0x32, 0x09, 0x0e, 0xf6, 0xff, 0xff, 0x04, 0x00, 0x00, 0x00,
    0x00, 0x01, 0x00, 0x00, 0x75, 0x04, 0x00, 0x00, 0x13, 0x02, 0x00, 0x00,
    0x6f, 0x14, 0x00, 0x00, 0xc6, 0xf7, 0xff, 0xff, 0xcd, 0x11, 0x00, 0x00,
    0x3c, 0xff, 0xff, 0xff, 0x19, 0x07, 0x00, 0x00, 0xba, 0xff, 0xff, 0xff,
    0xdf, 0x06, 0x00, 0x00, 0xa3, 0xf9, 0xff, 0xff, 0x9d, 0xef, 0xff, 0xff,
    0xe8, 0x07, 0x00, 0x00, 0x49, 0x0f, 0x00, 0x00, 0x72, 0x06, 0x00, 0x00,
    0x5e, 0x02, 0x00, 0x00, 0x7d, 0x00, 0x00, 0x00, 0x76, 0x08, 0x00, 0x00,
    0x78, 0xfd, 0xff, 0xff, 0xfd, 0x05, 0x00, 0x00, 0x21, 0xfd, 0xff, 0xff,
    0x6c, 0x07, 0x00, 0x00, 0x1a, 0xfd, 0xff, 0xff, 0x5f, 0x00, 0x00, 0x00,
    0x6d, 0xf9, 0xff, 0xff, 0xd2, 0x03, 0x00, 0x00, 0x4f, 0x01, 0x00, 0x00,
    0x5e, 0x01, 0x00, 0x00, 0xff, 0xff, 0xff, 0xff, 0xdd, 0x03, 0x00, 0x00,
    0xd9, 0x00, 0x00, 0x00, 0x75, 0x04, 0x00, 0x00, 0x24, 0xfe, 0xff, 0xff,
    0xb0, 0x03, 0x00, 0x00, 0x02, 0x1e, 0x00, 0x00, 0xa4, 0x02, 0x00, 0x00,
    0xbd, 0xfa, 0xff, 0xff, 0x48, 0x07, 0x00, 0x00, 0xe5, 0x08, 0x00, 0x00,
    0xf9, 0x05, 0x00, 0x00, 0xa6, 0x06, 0x00, 0x00, 0xf2, 0xf4, 0xff, 0xff,
    0xf2, 0x03, 0x00, 0x00, 0xcd, 0x08, 0x00, 0x00, 0x62, 0x09, 0x00, 0x00,
    0x71, 0x10, 0x00, 0x00, 0xbb, 0x05, 0x00, 0x00, 0x3e, 0x05, 0x00, 0x00,
    0x45, 0xec, 0xff, 0xff, 0x28, 0x04, 0x00, 0x00, 0xca, 0x00, 0x00, 0x00,
    0xb5, 0xfa, 0xff, 0xff, 0x61, 0x03, 0x00, 0x00, 0x92, 0x1e, 0x00, 0x00,
    0x92, 0xfc, 0xff, 0xff, 0x7f, 0xf4, 0xff, 0xff, 0x2c, 0x03, 0x00, 0x00,
    0x8a, 0xff, 0xff, 0xff, 0xad, 0x09, 0x00, 0x00, 0x5c, 0x1a, 0x00, 0x00,
    0x19, 0x0d, 0x00, 0x00, 0x72, 0x04, 0x00, 0x00, 0x2a, 0x04, 0x00, 0x00,
    0x0c, 0x05, 0x00, 0x00, 0x39, 0x0a, 0x00, 0x00, 0x1a, 0xf7, 0xff, 0xff,
    0x04, 0x00, 0x00, 0x00, 0x00, 0x08, 0x00, 0x00, 0x3b, 0xf5, 0x3b, 0xfa,
    0x4b, 0x0e, 0x6b, 0xc8, 0x14, 0x1b, 0xc0, 0x31, 0x39, 0x32, 0xf9, 0x35,
    0x3a, 0x06, 0x25, 0x3a, 0x38, 0xa2, 0x21, 0x10, 0xf1, 0x1b, 0x40, 0x02,
    0x56, 0x1a, 0x50, 0x30, 0xe1, 0x35, 0x40, 0x1b, 0x42, 0x3b, 0x18, 0x23,
    0xfb, 0x1b, 0x29, 0x24, 0x37, 0x2f, 0x27, 0xa9, 0xfd, 0x41, 0xea, 0xca,
    0x7a, 0xd5, 0xcd, 0xe2, 0x40, 0x60, 0x62, 0xff, 0x35, 0x1d, 0x44, 0x7f,
    0x3c, 0x08, 0x45, 0x02, 0x3b, 0x15, 0x4d, 0xca, 0x13, 0x0e, 0xdd, 0x2f,
    0x2a, 0x32, 0x0a, 0x3d, 0x39, 0x05, 0x12, 0x14, 0x3a, 0xa3, 0x31, 0xf5,
    0x03, 0x22, 0x28, 0x23, 0x5b, 0x23, 0x4a, 0x2a, 0xf8, 0x21, 0x3f, 0x23,
    0x3a, 0x28, 0x24, 0x21, 0xf4, 0x0d, 0x12, 0x2a, 0x40, 0x25, 0x14, 0xb4,
    0xe7, 0x3c, 0xd1, 0xd3, 0x7f, 0xd7, 0xc1, 0x00, 0x2f, 0x4e, 0x6d, 0xe5,
    0x2b, 0x17, 0x55, 0x76, 0x2e, 0xc2, 0x20, 0x1d, 0x70, 0x52, 0x42, 0xaf,
    0xe1, 0x4e, 0xac, 0xf5, 0x4e, 0x10, 0xb5, 0x4c, 0x47, 0xe7, 0x1b, 0x61,
    0x32, 0x1e, 0xe7, 0x5e, 0xc1, 0xf3, 0x4e, 0xe2, 0x48, 0xd8, 0x3a, 0x46,
    0xc4, 0x17, 0xf1, 0xcb, 0x08, 0x1e, 0x08, 0xde, 0x29, 0xec, 0x42, 0x31,
    0x22, 0x7f, 0x72, 0xad, 0x71, 0x66, 0x2e, 0xb1, 0x62, 0x5e, 0x34, 0xe5,
    0x73, 0x41, 0x3f, 0x7b, 0x2f, 0x3d, 0x2b, 0x45, 0x1e, 0xb2, 0x1c, 0x1a,
    0x5b, 0x5f, 0x44, 0xaf, 0xec, 0x3c, 0xb1, 0xf3, 0x59, 0x12, 0xd3, 0x49,
    0x39, 0xf7, 0x2f, 0x67, 0x42, 0x0f, 0xe4, 0x6b, 0xb3, 0xe7, 0x4b, 0xef,
    0x4f, 0xcb, 0x44, 0x4c, 0xc6, 0x02, 0xfd, 0xc7, 0x0f, 0x25, 0x11, 0xd4,
    0x2f, 0xfd, 0x32, 0x20, 0x1f, 0x6a, 0x7f, 0x99, 0x71, 0x6c, 0x2e, 0x9f,
    0x66, 0x59, 0x36, 0xed, 0x77, 0x42, 0x3f, 0x77, 0x30, 0x26, 0x32, 0x46,
    0x3b, 0x9a, 0xfa, 0xc8, 0x06, 0xed, 0x0d, 0x58, 0xc7, 0xb2, 0x81, 0x04,
    0x9e, 0xee, 0x36, 0x07, 0xbc, 0xf0, 0xc3, 0xf1, 0x48, 0x04, 0xbc, 0xbf,
    0xcb, 0x55, 0xdb, 0x9c, 0x49, 0x20, 0xc5, 0x46, 0xd2, 0xf1, 0xd1, 0xb8,
    0xb3, 0x26, 0xe1, 0xac, 0xb5, 0x22, 0x48, 0x15, 0xa8, 0xe1, 0xe6, 0x0b,
    0xce, 0xb0, 0xd1, 0xf3, 0x9a, 0xab, 0x3a, 0x3c, 0xf9, 0xa2, 0x82, 0x50,
    0x59, 0x05, 0x30, 0x96, 0x2c, 0x2e, 0x71, 0xfb, 0x05, 0xd5, 0x4a, 0x07,
    0x59, 0xde, 0x42, 0x5d, 0xf8, 0x40, 0x5a, 0x17, 0xfb, 0x47, 0x19, 0xc6,
    0x14, 0xa2, 0x60, 0xb9, 0x52, 0x74, 0x0d, 0x59, 0x37, 0x4a, 0x2e, 0x0e,
    0x3c, 0x71, 0x70, 0x61, 0x65, 0x41, 0x33, 0x58, 0xbc, 0x2f, 0x0f, 0x18,
    0x28, 0xbd, 0xce, 0x07, 0x9c, 0xdd, 0xb8, 0x3a, 0x47, 0x81, 0x8c, 0x49,
    0x08, 0x2f, 0x58, 0x9a, 0x2e, 0x22, 0x30, 0x30, 0x23, 0x37, 0x61, 0xe4,
    0x2a, 0xdf, 0x48, 0xf2, 0x3d, 0xe9, 0x32, 0x52, 0x12, 0x3e, 0x48, 0x0d,
    0x24, 0x38, 0x24, 0xdf, 0x17, 0x8f, 0x5e, 0xb3, 0x40, 0x6d, 0x04, 0x33,
    0x4d, 0x4e, 0x34, 0x32, 0x2e, 0x5e, 0x4d, 0x4a, 0x4a, 0x2f, 0x2d, 0x51,
    0xdf, 0x32, 0xfe, 0x1a, 0x29, 0xe1, 0xce, 0xed, 0xa7, 0xff, 0xaf, 0x1b,
    0x64, 0x81, 0x88, 0x19, 0xfb, 0x51, 0x53, 0x89, 0x37, 0x0c, 0x51, 0x77,
    0x2c, 0x27, 0x68, 0x0a, 0x24, 0xd7, 0x52, 0x0c, 0x3c, 0xe8, 0x2e, 0x47,
    0x1b, 0x49, 0x33, 0x2c, 0x25, 0x31, 0x30, 0xef, 0x17, 0x81, 0x5e, 0xa6,
    0x3c, 0x62, 0x1c, 0x50, 0x57, 0x50, 0x3e, 0x2d, 0x2c, 0x3c, 0x4a, 0x5b,
    0x49, 0x3f, 0x42, 0x4a, 0xcb, 0x23, 0x29, 0x25, 0x41, 0xf6, 0xe3, 0xd6,
    0xb5, 0xdd, 0xc7, 0x29, 0x6a, 0xa3, 0x98, 0x15, 0x13, 0x38, 0x65, 0xa2,
    0x47, 0x2d, 0x4f, 0x60, 0x3c, 0xcc, 0x3e, 0x04, 0x59, 0x31, 0x45, 0xb9,
    0x08, 0x16, 0xbc, 0x09, 0x3d, 0x17, 0xe9, 0x42, 0x39, 0xfc, 0x29, 0x42,
    0x2a, 0xc9, 0x12, 0x15, 0xe4, 0x09, 0x2b, 0xfa, 0x48, 0x06, 0x43, 0x48,
    0xe4, 0x1a, 0x2a, 0x02, 0x24, 0x31, 0x01, 0xf3, 0x04, 0xff, 0x1e, 0x31,
    0x32, 0x53, 0x2f, 0x8f, 0x1d, 0x3b, 0xf4, 0xc8, 0x71, 0xf2, 0xe5, 0xec,
    0x54, 0x56, 0x59, 0x10, 0x24, 0x18, 0x3f, 0x7f, 0x45, 0xb3, 0x38, 0xfa,
    0x65, 0x3b, 0x55, 0xb2, 0x03, 0x27, 0xa5, 0x1d, 0x4e, 0x13, 0xc2, 0x34,
    0x37, 0xed, 0x2d, 0x5c, 0x43, 0xdc, 0x07, 0x35, 0xcf, 0x09, 0x37, 0x07,
    0x50, 0xef, 0x38, 0x51, 0xc6, 0x1f, 0x27, 0xe0, 0x21, 0x24, 0x03, 0xfe,
    0x04, 0x05, 0x39, 0x36, 0x21, 0x5a, 0x42, 0x93, 0x40, 0x5b, 0xf7, 0xa3,
    0x7f, 0x1c, 0xf6, 0xcd, 0x6d, 0x4d, 0x49, 0x2d, 0x34, 0x2a, 0x2d, 0x7b,
    0xc0, 0xa0, 0xd2, 0x31, 0x22, 0xde, 0x1d, 0xcd, 0x41, 0x44, 0x1f, 0x98,
    0x02, 0x28, 0x13, 0xa2, 0xe2, 0xf3, 0x40, 0x81, 0xb4, 0xe8, 0x35, 0x0c,
    0x0a, 0x3e, 0x1e, 0x0a, 0xfc, 0x93, 0xf4, 0x8c, 0x8f, 0xe9, 0x8e, 0xdb,
    0xc2, 0xec, 0xff, 0xd6, 0xdd, 0x2c, 0xa0, 0xfe, 0x39, 0xa1, 0xdf, 0xc7,
    0xd6, 0xa1, 0xe6, 0x9c, 0xf3, 0x01, 0xef, 0x40, 0xe7, 0x27, 0xd5, 0x22,
    0xc6, 0xda, 0xd1, 0xa7, 0x60, 0x16, 0xe8, 0xba, 0x15, 0xea, 0x5f, 0xef,
    0x81, 0x1b, 0x55, 0xe2, 0xbc, 0x8c, 0x0e, 0x92, 0x33, 0x34, 0xf8, 0x47,
    0xc8, 0xce, 0xbb, 0xe1, 0xeb, 0x02, 0x2f, 0xb2, 0x85, 0x07, 0x2f, 0x66,
    0xef, 0xd9, 0xce, 0xa7, 0xd9, 0x9f, 0x3f, 0xb2, 0xcb, 0x26, 0x8d, 0x00,
    0x66, 0xea, 0xa4, 0xb5, 0x92, 0xfb, 0x59, 0xb4, 0xbf, 0xf9, 0x9f, 0x9e,
    0x13, 0x4d, 0x8d, 0xdd, 0xf4, 0xc7, 0x26, 0x26, 0x15, 0x4c, 0x9b, 0x23,
    0xc7, 0xd8, 0x4c, 0xbc, 0x28, 0x24, 0x81, 0xc3, 0xc7, 0x86, 0xf3, 0xcc,
    0x61, 0xf9, 0xf8, 0xa5, 0x60, 0x32, 0xdd, 0x93, 0xd8, 0xdf, 0xfa, 0x26,
    0x10, 0xee, 0x06, 0xb0, 0xe3, 0xc8, 0x1d, 0xe6, 0xdd, 0xc2, 0xb2, 0x44,
    0xdc, 0x60, 0xa8, 0x5f, 0xd9, 0xcb, 0xb9, 0xc8, 0x31, 0x9e, 0xb9, 0xcb,
    0xc7, 0xf3, 0x51, 0xc9, 0x98, 0x20, 0x26, 0x9f, 0xce, 0x47, 0xd5, 0xf4,
    0xf3, 0xa7, 0x99, 0xd2, 0xf7, 0xde, 0x92, 0x21, 0x3d, 0xfa, 0xbd, 0xb8,
    0x3c, 0xdf, 0xc6, 0x44, 0xd9, 0xb8, 0x3a, 0xa4, 0xd5, 0xca, 0xe0, 0xf2,
    0xa6, 0x18, 0x44, 0x86, 0x25, 0xaa, 0xf5, 0x90, 0xd7, 0xd9, 0xfb, 0xe2,
    0xdf, 0xe0, 0xa1, 0xf3, 0x18, 0xf5, 0x81, 0xf4, 0xa7, 0xf8, 0x3e, 0xa3,
    0x34, 0x4f, 0x3c, 0xcc, 0xfc, 0xeb, 0x22, 0xa1, 0x2f, 0x35, 0xfd, 0xf4,
    0xc4, 0x4d, 0xbc, 0x2a, 0x39, 0xaa, 0x1e, 0x0f, 0x51, 0x54, 0x41, 0x9a,
    0xf5, 0x40, 0xa7, 0x03, 0x50, 0x28, 0xea, 0x56, 0x3d, 0xe9, 0x31, 0x52,
    0x37, 0xf5, 0xfd, 0x5a, 0xa8, 0x00, 0x47, 0xfc, 0x5a, 0xd2, 0x38, 0x3f,
    0xd3, 0xfa, 0x03, 0xdb, 0x13, 0x20, 0x09, 0x11, 0x26, 0x00, 0x38, 0x29,
    0x27, 0x20, 0x5a, 0x8b, 0x23, 0x5e, 0x08, 0x8c, 0x5b, 0x2c, 0x15, 0xd0,
    0x7f, 0x36, 0x2f, 0x55, 0x50, 0x3d, 0x29, 0x61, 0xd6, 0x34, 0xca, 0xf8,
    0x87, 0xcf, 0x81, 0x03, 0xda, 0x16, 0xa2, 0xda, 0xcd, 0xc5, 0xda, 0x42,
    0xb5, 0xf6, 0xee, 0xc3, 0xf4, 0x07, 0xc4, 0x09, 0xc9, 0x38, 0x3a, 0x9d,
    0xf7, 0xd1, 0xa6, 0x28, 0x92, 0x26, 0x36, 0x15, 0x51, 0x99, 0x41, 0x93,
    0xdc, 0xb5, 0x36, 0xc3, 0xbf, 0xab, 0xff, 0x0e, 0xb7, 0xec, 0x31, 0xf0,
    0xe1, 0xdf, 0xf5, 0x4b, 0x0b, 0x3c, 0xf8, 0x1c, 0xef, 0xb7, 0xf9, 0x18,
    0xac, 0xcb, 0x04, 0xc8, 0xf9, 0xac, 0x10, 0xb8, 0xdb, 0xc2, 0xc8, 0xaf,
    0x47, 0x18, 0xb9, 0x20, 0xbe, 0x81, 0x1b, 0x4d, 0xb4, 0x07, 0x56, 0x51,
    0xed, 0xfd, 0x28, 0xaf, 0x4a, 0xb3, 0xd2, 0xb8, 0x98, 0xcc, 0xb6, 0xf3,
    0xf7, 0xdf, 0x42, 0xa9, 0xf3, 0xb8, 0xa0, 0xfc, 0xa2, 0x04, 0xd6, 0x26,
    0x13, 0xb7, 0x96, 0xfa, 0x15, 0xd4, 0xc9, 0xe0, 0xb6, 0x9b, 0xe4, 0x38,
    0x08, 0x3f, 0x54, 0x3d, 0x2d, 0x2f, 0x57, 0xf1, 0x2b, 0xd6, 0x7d, 0x00,
    0x3a, 0xfb, 0x05, 0x50, 0x13, 0x44, 0x2e, 0x1b, 0x2c, 0x1a, 0x1a, 0xf1,
    0x1a, 0x81, 0x4e, 0xb5, 0x2a, 0x4f, 0x0e, 0x34, 0x5e, 0x5f, 0x28, 0x3b,
    0xfc, 0x52, 0x5c, 0x41, 0x49, 0x3e, 0x3c, 0x2d, 0xe4, 0x23, 0x2c, 0x29,
    0x33, 0x06, 0xe0, 0xbf, 0xab, 0x01, 0xd1, 0x0a, 0x66, 0x96, 0x95, 0x1f,
    0x16, 0x41, 0x62, 0x82, 0x42, 0x0f, 0x4c, 0x69, 0x43, 0xf7, 0x52, 0xfd,
    0x3e, 0x14, 0x6b, 0xd8, 0x0a, 0x0c, 0xd5, 0x26, 0x35, 0x3b, 0xf1, 0x3c,
    0x31, 0xf5, 0x28, 0x2e, 0x34, 0x95, 0x20, 0xfe, 0xf1, 0x31, 0x31, 0x14,
    0x55, 0x20, 0x57, 0x38, 0xfb, 0x2b, 0x31, 0x1d, 0x4d, 0x4d, 0x1a, 0x1e,
    0xec, 0x26, 0x2d, 0x2f, 0x2e, 0x26, 0x14, 0xab, 0xfd, 0x41, 0xde, 0xcf,
    0x75, 0xdc, 0xc5, 0xef, 0x4e, 0x55, 0x64, 0xd5, 0x37, 0x38, 0x5a, 0x7f,
    0x29, 0xa5, 0x1c, 0x2f, 0x5b, 0x65, 0x31, 0xb0, 0xed, 0x4e, 0xbe, 0x04,
    0x51, 0x0c, 0xe0, 0x4d, 0x4b, 0xf8, 0x2f, 0x60, 0x3a, 0x18, 0xf2, 0x60,
    0xb7, 0xf1, 0x52, 0xed, 0x41, 0xcf, 0x2b, 0x4c, 0xb9, 0x01, 0xf4, 0xc9,
    0xf8, 0x11, 0x0a, 0xe1, 0x42, 0xfb, 0x30, 0x33, 0x23, 0x77, 0x76, 0xaa,
    0x75, 0x6e, 0x3a, 0xa8, 0x53, 0x61, 0x3c, 0xf3, 0x7f, 0x30, 0x3a, 0x6b,
    0x3e, 0x38, 0x28, 0x46, 0x2d, 0x13, 0x4c, 0x00, 0x33, 0xf2, 0x52, 0xe5,
    0x16, 0xf3, 0xf7, 0x3a, 0x23, 0x21, 0x10, 0x21, 0x16, 0x02, 0x24, 0x0b,
    0x31, 0xad, 0x44, 0xdb, 0x06, 0x38, 0x11, 0x1b, 0x4a, 0x3e, 0x45, 0x3c,
    0x14, 0x3c, 0x4a, 0x2c, 0x38, 0x40, 0x29, 0x37, 0xdd, 0x1a, 0x12, 0x23,
    0x39, 0xff, 0x01, 0xbf, 0xcc, 0x0a, 0xc2, 0x03, 0x6b, 0xc1, 0xbd, 0x14,
    0x23, 0x46, 0x52, 0xc5, 0x26, 0x19, 0x46, 0x7f, 0x0c, 0x59, 0x54, 0x0d,
    0xee, 0xdf, 0x11, 0x38, 0x3e, 0xe7, 0x6d, 0x47, 0xd9, 0x27, 0x58, 0xfc,
    0x02, 0x5d, 0x28, 0xc2, 0x09, 0x04, 0x35, 0xcc, 0x51, 0x7f, 0xe4, 0x54,
    0xf8, 0x38, 0xfc, 0xf5, 0x5d, 0x6d, 0x34, 0x75, 0x32, 0x08, 0x38, 0x53,
    0xca, 0x3e, 0xf5, 0x0f, 0x0f, 0xba, 0xaa, 0x4c, 0xed, 0xe0, 0xe9, 0x54,
    0x1a, 0xb6, 0xd0, 0x56, 0xec, 0x0e, 0x14, 0xb4, 0x25, 0x0e, 0x0e, 0xf6,
    0x9e, 0xe6, 0x3e, 0x46, 0x4a, 0x01, 0x1f, 0xb2, 0xe2, 0x8d, 0xf1, 0xff,
    0xff, 0xe0, 0x12, 0x00, 0x47, 0xe8, 0xd5, 0x86, 0xa6, 0xff, 0x91, 0xbf,
    0xd8, 0xc3, 0xc3, 0xdd, 0x29, 0x3b, 0xa2, 0x2c, 0x21, 0x8a, 0x3e, 0x99,
    0xc8, 0xe2, 0x07, 0x8c, 0x02, 0xf5, 0x2e, 0x2a, 0xd1, 0xbe, 0xa1, 0x62,
    0xd4, 0x19, 0x23, 0x89, 0xcf, 0x8d, 0x81, 0xff, 0x31, 0x3c, 0x40, 0xa4,
    0x02, 0x8e, 0xb5, 0x43, 0x24, 0x10, 0x62, 0xfe, 0x2f, 0x04, 0x53, 0xde,
    0x13, 0xf6, 0xeb, 0x2f, 0x2a, 0x2e, 0x24, 0x34, 0x2e, 0x07, 0x21, 0x20,
    0x2d, 0xa0, 0x34, 0xee, 0x1d, 0x37, 0x16, 0x17, 0x4e, 0x32, 0x52, 0x46,
    0x08, 0x2e, 0x48, 0x2d, 0x5a, 0x41, 0x27, 0x3c, 0xe6, 0x24, 0x24, 0x38,
    0x2c, 0x02, 0xfa, 0xb7, 0xd7, 0x1b, 0xd6, 0xfe, 0x7e, 0xba, 0x9d, 0xfc,
    0x31, 0x4b, 0x70, 0xc2, 0x26, 0x16, 0x46, 0x7f, 0xd4, 0x84, 0xf1, 0x29,
    0xe7, 0xf3, 0xff, 0x10, 0xae, 0x32, 0xba, 0xf0, 0xe3, 0x40, 0x90, 0xba,
    0xeb, 0xaf, 0x59, 0xd9, 0xa5, 0xf4, 0xd8, 0xef, 0xd4, 0x9b, 0x19, 0x07,
    0xad, 0xce, 0x33, 0x5d, 0xf2, 0x06, 0x2f, 0xf3, 0xd7, 0xaa, 0xa4, 0x06,
    0xad, 0x09, 0xba, 0xa4, 0x83, 0xf6, 0xe3, 0x3d, 0x94, 0xd9, 0xf1, 0x37,
    0x44, 0xc4, 0x27, 0xda, 0xec, 0x96, 0xf6, 0x81, 0x8e, 0xb5, 0xda, 0x5d,
    0x3b, 0xc6, 0x39, 0xf8, 0x48, 0x31, 0x42, 0xb3, 0xfd, 0x27, 0xbe, 0x0b,
    0x47, 0x14, 0xd4, 0x45, 0x2a, 0xea, 0x1f, 0x3c, 0x29, 0xc7, 0x03, 0x1b,
    0xd5, 0xfc, 0x32, 0xf6, 0x58, 0xf3, 0x31, 0x49, 0xd8, 0x28, 0x19, 0xeb,
    0x1e, 0x34, 0x1a, 0xfc, 0x16, 0x17, 0x2b, 0x1f, 0x32, 0x49, 0x2c, 0x9c,
    0x18, 0x51, 0x02, 0xbf, 0x71, 0x15, 0xe2, 0xda, 0x59, 0x43, 0x4d, 0x0f,
    0x30, 0x34, 0x33, 0x7f, 0x45, 0x9b, 0x29, 0x1c, 0x5b, 0x3f, 0x39, 0xa2,
    0xe7, 0x57, 0x9e, 0x05, 0x59, 0x27, 0xe1, 0x56, 0x44, 0xf2, 0x2d, 0x3d,
    0x40, 0xec, 0xf8, 0x4c, 0xb4, 0xf1, 0x48, 0xf0, 0x58, 0xd2, 0x3b, 0x4a,
    0xe3, 0x18, 0x07, 0xe8, 0x0a, 0x21, 0x1a, 0xfd, 0x0e, 0x0e, 0x41, 0x38,
    0x3b, 0x24, 0x47, 0x98, 0x2a, 0x52, 0x1d, 0x8d, 0x5c, 0x3c, 0x0d, 0xe3,
    0x7f, 0x1d, 0x43, 0x41, 0x45, 0x36, 0x44, 0x67, 0x28, 0x0c, 0x55, 0xec,
    0x15, 0xc9, 0x67, 0xfa, 0x44, 0x03, 0x30, 0x60, 0x22, 0x46, 0x49, 0x0e,
    0x0a, 0x24, 0x15, 0xe6, 0x25, 0x81, 0x50, 0xae, 0x41, 0x76, 0xff, 0x42,
    0x5c, 0x66, 0x28, 0x2d, 0x08, 0x57, 0x55, 0x4c, 0x51, 0x4c, 0x3f, 0x33,
    0xe3, 0x39, 0x18, 0x31, 0x36, 0xed, 0xe4, 0xcd, 0xa3, 0x08, 0xad, 0x23,
    0x7a, 0x96, 0x84, 0x2c, 0x0a, 0x37, 0x61, 0x96, 0x3e, 0x22, 0x52, 0x4a,
    0x2c, 0x3d, 0x64, 0xee, 0x01, 0xce, 0x32, 0x0d, 0x39, 0xe1, 0x48, 0x50,
    0x0a, 0x44, 0x65, 0x14, 0x14, 0x4e, 0x17, 0xe8, 0x20, 0x9c, 0x62, 0xac,
    0x56, 0x78, 0x11, 0x58, 0x32, 0x46, 0x20, 0x23, 0x4b, 0x65, 0x52, 0x69,
    0x53, 0x38, 0x2e, 0x48, 0xcc, 0x46, 0x0a, 0x15, 0x1f, 0xc4, 0xcb, 0xfa,
    0xa3, 0xe6, 0xbe, 0x2c, 0x64, 0x81, 0xa0, 0x2e, 0x05, 0x2d, 0x56, 0x89,
    0x30, 0x11, 0x34, 0x47, 0x41, 0xa8, 0x1f, 0x18, 0x63, 0x3d, 0x3a, 0xa8,
    0x06, 0x3a, 0x86, 0x0f, 0x5a, 0x1d, 0xb1, 0x47, 0x44, 0xf7, 0x3c, 0x6b,
    0x37, 0xe9, 0x06, 0x57, 0xd3, 0xe2, 0x4c, 0xff, 0x54, 0xc2, 0x2c, 0x48,
    0xcf, 0x0d, 0xfd, 0xea, 0x16, 0x33, 0x14, 0xdf, 0x16, 0x0c, 0x42, 0x25,
    0x2f, 0x43, 0x7f, 0x88, 0x4a, 0x5a, 0x21, 0x94, 0x6b, 0x3a, 0x1a, 0xcd,
    0x71, 0x48, 0x54, 0x61, 0x47, 0x33, 0x26, 0x77, 0x20, 0x3b, 0x64, 0xfc,
    0x0b, 0xd7, 0x2a, 0x1c, 0x47, 0xdd, 0x3d, 0x4c, 0xf1, 0x45, 0x60, 0x18,
    0x09, 0x4e, 0x26, 0xc8, 0x13, 0xa4, 0x60, 0xb8, 0x4f, 0x7f, 0x03, 0x49,
    0x39, 0x4a, 0x25, 0x1d, 0x53, 0x57, 0x4a, 0x64, 0x5b, 0x38, 0x2f, 0x60,
    0xb9, 0x42, 0x0c, 0x09, 0x20, 0xd1, 0xc9, 0x15, 0xa3, 0xe3, 0xd8, 0x49,
    0x3d, 0xa1, 0x9e, 0x53, 0xf1, 0x3e, 0x54, 0x97, 0x34, 0x1c, 0x38, 0x19,
    0x18, 0xd4, 0x24, 0x41, 0x25, 0x99, 0xbf, 0x17, 0x06, 0x81, 0xb1, 0x00,
    0x0d, 0x13, 0x2a, 0x19, 0x21, 0x33, 0x37, 0x2f, 0x17, 0x13, 0x2b, 0xe2,
    0xfa, 0x16, 0x1d, 0x29, 0x32, 0xc5, 0x18, 0x11, 0xe0, 0x39, 0x1e, 0x0d,
    0xfe, 0x1d, 0x14, 0x08, 0xa7, 0x16, 0x2d, 0x2f, 0xd8, 0x09, 0x05, 0xe6,
    0x00, 0xf8, 0x2c, 0xfe, 0x1b, 0x11, 0xf2, 0x1a, 0xfb, 0x2a, 0x10, 0x10,
    0xea, 0x39, 0x1b, 0x43, 0x26, 0xff, 0xff, 0xff, 0x04, 0x00, 0x00, 0x00,
    0x80, 0x00, 0x00, 0x00, 0x2e, 0x0c, 0x00, 0x00, 0x50, 0x0b, 0x00, 0x00,
    0x56, 0x06, 0x00, 0x00, 0x99, 0x06, 0x00, 0x00, 0x97, 0xff, 0xff, 0xff,
    0x06, 0x07, 0x00, 0x00, 0x0b, 0x0a, 0x00, 0x00, 0x8d, 0x0a, 0x00, 0x00,
    0xfa, 0x0a, 0x00, 0x00, 0x75, 0x0a, 0x00, 0x00, 0xda, 0xfe, 0xff, 0xff,
    0x79, 0xff, 0xff, 0xff, 0x5f, 0xff, 0xff, 0xff, 0x0e, 0xff, 0xff, 0xff,
    0xb4, 0x08, 0x00, 0x00, 0xbc, 0xfe, 0xff, 0xff, 0xb0, 0xfe, 0xff, 0xff,
    0x4c, 0x0b, 0x00, 0x00, 0x32, 0x0d, 0x00, 0x00, 0xaa, 0x05, 0x00, 0x00,
    0x98, 0x0a, 0x00, 0x00, 0x0a, 0x00, 0x00, 0x00, 0x7e, 0xff, 0xff, 0xff,
    0x49, 0x0c, 0x00, 0x00, 0x31, 0xff, 0xff, 0xff, 0x21, 0x0a, 0x00, 0x00,
    0xcd, 0x08, 0x00, 0x00, 0x98, 0x0b, 0x00, 0x00, 0xa7, 0x07, 0x00, 0x00,
    0x4d, 0x09, 0x00, 0x00, 0x1f, 0x05, 0x00, 0x00, 0x0d, 0xfc, 0xff, 0xff,
    0xb2, 0xff, 0xff, 0xff, 0x04, 0x00, 0x00, 0x00, 0x40, 0x00, 0x00, 0x00,
    0x1d, 0x1c, 0x2e, 0x30, 0xf9, 0xf6, 0x06, 0x0c, 0x1f, 0x2a, 0x01, 0xf9,
    0x04, 0x01, 0x2d, 0xf8, 0xfb, 0x16, 0x21, 0x2e, 0x16, 0xbd, 0xfb, 0x19,
    0xfc, 0x2a, 0x2e, 0x0c, 0xfa, 0x30, 0xef, 0x81, 0x15, 0x1e, 0xec, 0xed,
    0xf6, 0x34, 0x2e, 0x2e, 0x0c, 0x07, 0xfd, 0x01, 0xf9, 0xfb, 0xff, 0xfc,
    0xfc, 0x30, 0x1e, 0xe9, 0x28, 0x34, 0xf9, 0x28, 0xf8, 0x0c, 0x02, 0x27,
    0x37, 0xfc, 0x34, 0x81, 0x00, 0x00, 0x06, 0x00, 0x08, 0x00, 0x04, 0x00,
    0x06, 0x00, 0x00, 0x00, 0x04, 0x00, 0x00, 0x00, 0x08, 0x00, 0x00, 0x00,
    0x3b, 0x00, 0x00, 0x00, 0x30, 0x00, 0x00, 0x00, 0x84, 0xff, 0xff, 0xff,
    0x88, 0xff, 0xff, 0xff, 0x0f, 0x00, 0x00, 0x00, 0x4d, 0x4c, 0x49, 0x52,
    0x20, 0x43, 0x6f, 0x6e, 0x76, 0x65, 0x72, 0x74, 0x65, 0x64, 0x2e, 0x00,
    0x01, 0x00, 0x00, 0x00, 0x14, 0x00, 0x00, 0x00, 0x00, 0x00, 0x0e, 0x00,
    0x18, 0x00, 0x14, 0x00, 0x10, 0x00, 0x0c, 0x00, 0x08, 0x00, 0x04, 0x00,
    0x0e, 0x00, 0x00, 0x00, 0x14, 0x00, 0x00, 0x00, 0x1c, 0x00, 0x00, 0x00,
    0xec, 0x00, 0x00, 0x00, 0xf0, 0x00, 0x00, 0x00, 0xf4, 0x00, 0x00, 0x00,
    0x04, 0x00, 0x00, 0x00, 0x6d, 0x61, 0x69, 0x6e, 0x00, 0x00, 0x00, 0x00,
    0x03, 0x00, 0x00, 0x00, 0x94, 0x00, 0x00, 0x00, 0x4c, 0x00, 0x00, 0x00,
    0x04, 0x00, 0x00, 0x00, 0xca, 0xff, 0xff, 0xff, 0x14, 0x00, 0x00, 0x00,
    0x00, 0x00, 0x00, 0x08, 0x10, 0x00, 0x00, 0x00, 0x14, 0x00, 0x00, 0x00,
    0x04, 0x00, 0x04, 0x00, 0x04, 0x00, 0x00, 0x00, 0x01, 0x00, 0x00, 0x00,
    0x09, 0x00, 0x00, 0x00, 0x03, 0x00, 0x00, 0x00, 0x08, 0x00, 0x00, 0x00,
    0x02, 0x00, 0x00, 0x00, 0x01, 0x00, 0x00, 0x00, 0x00, 0x00, 0x0e, 0x00,
    0x14, 0x00, 0x00, 0x00, 0x10, 0x00, 0x0c, 0x00, 0x0b, 0x00, 0x04, 0x00,
    0x0e, 0x00, 0x00, 0x00, 0x10, 0x00, 0x00, 0x00, 0x00, 0x00, 0x00, 0x08,
    0x10, 0x00, 0x00, 0x00, 0x14, 0x00, 0x00, 0x00, 0xba, 0xff, 0xff, 0xff,
    0x00, 0x00, 0x00, 0x01, 0x01, 0x00, 0x00, 0x00, 0x08, 0x00, 0x00, 0x00,
    0x03, 0x00, 0x00, 0x00, 0x07, 0x00, 0x00, 0x00, 0x04, 0x00, 0x00, 0x00,
    0x03, 0x00, 0x00, 0x00, 0x00, 0x00, 0x0e, 0x00, 0x16, 0x00, 0x00, 0x00,
    0x10, 0x00, 0x0c, 0x00, 0x0b, 0x00, 0x04, 0x00, 0x0e, 0x00, 0x00, 0x00,
    0x18, 0x00, 0x00, 0x00, 0x00, 0x00, 0x00, 0x08, 0x18, 0x00, 0x00, 0x00,
    0x1c, 0x00, 0x00, 0x00, 0x00, 0x00, 0x06, 0x00, 0x08, 0x00, 0x07, 0x00,
    0x06, 0x00, 0x00, 0x00, 0x00, 0x00, 0x00, 0x01, 0x01, 0x00, 0x00, 0x00,
    0x07, 0x00, 0x00, 0x00, 0x03, 0x00, 0x00, 0x00, 0x00, 0x00, 0x00, 0x00,
    0x06, 0x00, 0x00, 0x00, 0x05, 0x00, 0x00, 0x00, 0x01, 0x00, 0x00, 0x00,
    0x09, 0x00, 0x00, 0x00, 0x01, 0x00, 0x00, 0x00, 0x00, 0x00, 0x00, 0x00,
    0x0a, 0x00, 0x00, 0x00, 0xd4, 0x0d, 0x00, 0x00, 0x44, 0x0d, 0x00, 0x00,
    0xb0, 0x0c, 0x00, 0x00, 0xb4, 0x0a, 0x00, 0x00, 0xd0, 0x08, 0x00, 0x00,
    0x54, 0x05, 0x00, 0x00, 0xf0, 0x01, 0x00, 0x00, 0x3c, 0x01, 0x00, 0x00,
    0x80, 0x00, 0x00, 0x00, 0x04, 0x00, 0x00, 0x00, 0x6a, 0xf2, 0xff, 0xff,
    0x00, 0x00, 0x00, 0x01, 0x18, 0x00, 0x00, 0x00, 0x20, 0x00, 0x00, 0x00,
    0x3c, 0x00, 0x00, 0x00, 0x0a, 0x00, 0x00, 0x00, 0x00, 0x00, 0x00, 0x09,
    0x50, 0x00, 0x00, 0x00, 0x02, 0x00, 0x00, 0x00, 0xff, 0xff, 0xff, 0xff,
    0x02, 0x00, 0x00, 0x00, 0x54, 0xf2, 0xff, 0xff, 0x08, 0x00, 0x00, 0x00,
    0x10, 0x00, 0x00, 0x00, 0x01, 0x00, 0x00, 0x00, 0x80, 0xff, 0xff, 0xff,
    0xff, 0xff, 0xff, 0xff, 0x01, 0x00, 0x00, 0x00, 0x3e, 0x77, 0x2f, 0x41,
    0x1b, 0x00, 0x00, 0x00, 0x53, 0x74, 0x61, 0x74, 0x65, 0x66, 0x75, 0x6c,
    0x50, 0x61, 0x72, 0x74, 0x69, 0x74, 0x69, 0x6f, 0x6e, 0x65, 0x64, 0x43,
    0x61, 0x6c, 0x6c, 0x5f, 0x31, 0x3a, 0x30, 0x00, 0x02, 0x00, 0x00, 0x00,
    0x01, 0x00, 0x00, 0x00, 0x02, 0x00, 0x00, 0x00, 0xe2, 0xf2, 0xff, 0xff,
    0x00, 0x00, 0x00, 0x01, 0x18, 0x00, 0x00, 0x00, 0x20, 0x00, 0x00, 0x00,
    0x3c, 0x00, 0x00, 0x00, 0x09, 0x00, 0x00, 0x00, 0x00, 0x00, 0x00, 0x09,
    0x90, 0x00, 0x00, 0x00, 0x02, 0x00, 0x00, 0x00, 0xff, 0xff, 0xff, 0xff,
    0x20, 0x00, 0x00, 0x00, 0xcc, 0xf2, 0xff, 0xff, 0x08, 0x00, 0x00, 0x00,
    0x10, 0x00, 0x00, 0x00, 0x01, 0x00, 0x00, 0x00, 0x80, 0xff, 0xff, 0xff,
    0xff, 0xff, 0xff, 0xff, 0x01, 0x00, 0x00, 0x00, 0x74, 0xf2, 0xcf, 0x3f,
    0x58, 0x00, 0x00, 0x00, 0x73, 0x65, 0x71, 0x75, 0x65, 0x6e, 0x74, 0x69,
    0x61, 0x6c, 0x5f, 0x31, 0x2f, 0x64, 0x65, 0x6e, 0x73, 0x65, 0x5f, 0x31,
    0x5f, 0x32, 0x2f, 0x4d, 0x61, 0x74, 0x4d, 0x75, 0x6c, 0x3b, 0x73, 0x65,
    0x71, 0x75, 0x65, 0x6e, 0x74, 0x69, 0x61, 0x6c, 0x5f, 0x31, 0x2f, 0x64,
    0x65, 0x6e, 0x73, 0x65, 0x5f, 0x31, 0x5f, 0x32, 0x2f, 0x52, 0x65, 0x6c,
    0x75, 0x3b, 0x73, 0x65, 0x71, 0x75, 0x65, 0x6e, 0x74, 0x69, 0x61, 0x6c,
    0x5f, 0x31, 0x2f, 0x64, 0x65, 0x6e, 0x73, 0x65, 0x5f, 0x31, 0x5f, 0x32,
    0x2f, 0x42, 0x69, 0x61, 0x73, 0x41, 0x64, 0x64, 0x00, 0x00, 0x00, 0x00,
    0x02, 0x00, 0x00, 0x00, 0x01, 0x00, 0x00, 0x00, 0x20, 0x00, 0x00, 0x00,
    0x9a, 0xf3, 0xff, 0xff, 0x00, 0x00, 0x00, 0x01, 0x18, 0x00, 0x00, 0x00,
    0x20, 0x00, 0x00, 0x00, 0x3c, 0x00, 0x00, 0x00, 0x08, 0x00, 0x00, 0x00,
    0x00, 0x00, 0x00, 0x09, 0x88, 0x00, 0x00, 0x00, 0x02, 0x00, 0x00, 0x00,
    0xff, 0xff, 0xff, 0xff, 0x40, 0x00, 0x00, 0x00, 0x84, 0xf3, 0xff, 0xff,
    0x08, 0x00, 0x00, 0x00, 0x10, 0x00, 0x00, 0x00, 0x01, 0x00, 0x00, 0x00,
    0x80, 0xff, 0xff, 0xff, 0xff, 0xff, 0xff, 0xff, 0x01, 0x00, 0x00, 0x00,
    0x34, 0x89, 0xd7, 0x3d, 0x52, 0x00, 0x00, 0x00, 0x73, 0x65, 0x71, 0x75,
    0x65, 0x6e, 0x74, 0x69, 0x61, 0x6c, 0x5f, 0x31, 0x2f, 0x64, 0x65, 0x6e,
    0x73, 0x65, 0x5f, 0x31, 0x2f, 0x4d, 0x61, 0x74, 0x4d, 0x75, 0x6c, 0x3b,
    0x73, 0x65, 0x71, 0x75, 0x65, 0x6e, 0x74, 0x69, 0x61, 0x6c, 0x5f, 0x31,
    0x2f, 0x64, 0x65, 0x6e, 0x73, 0x65, 0x5f, 0x31, 0x2f, 0x52, 0x65, 0x6c,
    0x75, 0x3b, 0x73, 0x65, 0x71, 0x75, 0x65, 0x6e, 0x74, 0x69, 0x61, 0x6c,
    0x5f, 0x31, 0x2f, 0x64, 0x65, 0x6e, 0x73, 0x65, 0x5f, 0x31, 0x2f, 0x42,
    0x69, 0x61, 0x73, 0x41, 0x64, 0x64, 0x00, 0x00, 0x02, 0x00, 0x00, 0x00,
    0x01, 0x00, 0x00, 0x00, 0x40, 0x00, 0x00, 0x00, 0xd6, 0xf4, 0xff, 0xff,
    0x00, 0x00, 0x00, 0x01, 0x14, 0x00, 0x00, 0x00, 0x28, 0x03, 0x00, 0x00,
    0x07, 0x00, 0x00, 0x00, 0x00, 0x00, 0x00, 0x09, 0x3c, 0x03, 0x00, 0x00,
    0x24, 0xf4, 0xff, 0xff, 0x08, 0x00, 0x00, 0x00, 0x0c, 0x02, 0x00, 0x00,
    0x40, 0x00, 0x00, 0x00, 0x00, 0x00, 0x00, 0x00, 0x00, 0x00, 0x00, 0x00,
    0x00, 0x00, 0x00, 0x00, 0x00, 0x00, 0x00, 0x00, 0x00, 0x00, 0x00, 0x00,
    0x00, 0x00, 0x00, 0x00, 0x00, 0x00, 0x00, 0x00, 0x00, 0x00, 0x00, 0x00,
    0x00, 0x00, 0x00, 0x00, 0x00, 0x00, 0x00, 0x00, 0x00, 0x00, 0x00, 0x00,
    0x00, 0x00, 0x00, 0x00, 0x00, 0x00, 0x00, 0x00, 0x00, 0x00, 0x00, 0x00,
    0x00, 0x00, 0x00, 0x00, 0x00, 0x00, 0x00, 0x00, 0x00, 0x00, 0x00, 0x00,
    0x00, 0x00, 0x00, 0x00, 0x00, 0x00, 0x00, 0x00, 0x00, 0x00, 0x00, 0x00,
    0x00, 0x00, 0x00, 0x00, 0x00, 0x00, 0x00, 0x00, 0x00, 0x00, 0x00, 0x00,
    0x00, 0x00, 0x00, 0x00, 0x00, 0x00, 0x00, 0x00, 0x00, 0x00, 0x00, 0x00,
    0x00, 0x00, 0x00, 0x00, 0x00, 0x00, 0x00, 0x00, 0x00, 0x00, 0x00, 0x00,
    0x00, 0x00, 0x00, 0x00, 0x00, 0x00, 0x00, 0x00, 0x00, 0x00, 0x00, 0x00,
    0x00, 0x00, 0x00, 0x00, 0x00, 0x00, 0x00, 0x00, 0x00, 0x00, 0x00, 0x00,
    0x00, 0x00, 0x00, 0x00, 0x00, 0x00, 0x00, 0x00, 0x00, 0x00, 0x00, 0x00,
    0x00, 0x00, 0x00, 0x00, 0x00, 0x00, 0x00, 0x00, 0x00, 0x00, 0x00, 0x00,
    0x00, 0x00, 0x00, 0x00, 0x00, 0x00, 0x00, 0x00, 0x00, 0x00, 0x00, 0x00,
    0x00, 0x00, 0x00, 0x00, 0x00, 0x00, 0x00, 0x00, 0x00, 0x00, 0x00, 0x00,
    0x00, 0x00, 0x00, 0x00, 0x00, 0x00, 0x00, 0x00, 0x00, 0x00, 0x00, 0x00,
    0x00, 0x00, 0x00, 0x00, 0x00, 0x00, 0x00, 0x00, 0x00, 0x00, 0x00, 0x00,
    0x00, 0x00, 0x00, 0x00, 0x00, 0x00, 0x00, 0x00, 0x00, 0x00, 0x00, 0x00,
    0x00, 0x00, 0x00, 0x00, 0x00, 0x00, 0x00, 0x00, 0x00, 0x00, 0x00, 0x00,
    0x00, 0x00, 0x00, 0x00, 0x00, 0x00, 0x00, 0x00, 0x00, 0x00, 0x00, 0x00,
    0x00, 0x00, 0x00, 0x00, 0x00, 0x00, 0x00, 0x00, 0x00, 0x00, 0x00, 0x00,
    0x00, 0x00, 0x00, 0x00, 0x00, 0x00, 0x00, 0x00, 0x00, 0x00, 0x00, 0x00,
    0x00, 0x00, 0x00, 0x00, 0x00, 0x00, 0x00, 0x00, 0x00, 0x00, 0x00, 0x00,
    0x00, 0x00, 0x00, 0x00, 0x00, 0x00, 0x00, 0x00, 0x00, 0x00, 0x00, 0x00,
    0x00, 0x00, 0x00, 0x00, 0x00, 0x00, 0x00, 0x00, 0x00, 0x00, 0x00, 0x00,
    0x00, 0x00, 0x00, 0x00, 0x00, 0x00, 0x00, 0x00, 0x00, 0x00, 0x00, 0x00,
    0x00, 0x00, 0x00, 0x00, 0x00, 0x00, 0x00, 0x00, 0x00, 0x00, 0x00, 0x00,
    0x00, 0x00, 0x00, 0x00, 0x00, 0x00, 0x00, 0x00, 0x00, 0x00, 0x00, 0x00,
    0x00, 0x00, 0x00, 0x00, 0x00, 0x00, 0x00, 0x00, 0x00, 0x00, 0x00, 0x00,
    0x00, 0x00, 0x00, 0x00, 0x00, 0x00, 0x00, 0x00, 0x00, 0x00, 0x00, 0x00,
    0x00, 0x00, 0x00, 0x00, 0x00, 0x00, 0x00, 0x00, 0x00, 0x00, 0x00, 0x00,
    0x00, 0x00, 0x00, 0x00, 0x00, 0x00, 0x00, 0x00, 0x00, 0x00, 0x00, 0x00,
    0x00, 0x00, 0x00, 0x00, 0x00, 0x00, 0x00, 0x00, 0x00, 0x00, 0x00, 0x00,
    0x00, 0x00, 0x00, 0x00, 0x00, 0x00, 0x00, 0x00, 0x00, 0x00, 0x00, 0x00,
    0x00, 0x00, 0x00, 0x00, 0x00, 0x00, 0x00, 0x00, 0x00, 0x00, 0x00, 0x00,
    0x00, 0x00, 0x00, 0x00, 0x00, 0x00, 0x00, 0x00, 0x00, 0x00, 0x00, 0x00,
    0x00, 0x00, 0x00, 0x00, 0x00, 0x00, 0x00, 0x00, 0x00, 0x00, 0x00, 0x00,
    0x00, 0x00, 0x00, 0x00, 0x00, 0x00, 0x00, 0x00, 0x00, 0x00, 0x00, 0x00,
    0x00, 0x00, 0x00, 0x00, 0x00, 0x00, 0x00, 0x00, 0x00, 0x00, 0x00, 0x00,
    0x00, 0x00, 0x00, 0x00, 0x00, 0x00, 0x00, 0x00, 0x00, 0x00, 0x00, 0x00,
    0x00, 0x00, 0x00, 0x00, 0x00, 0x00, 0x00, 0x00, 0x00, 0x00, 0x00, 0x00,
    0x00, 0x00, 0x00, 0x00, 0x00, 0x00, 0x00, 0x00, 0x00, 0x00, 0x00, 0x00,
    0x00, 0x00, 0x00, 0x00, 0x40, 0x00, 0x00, 0x00, 0x49, 0x8c, 0xb7, 0x3c,
    0x83, 0x13, 0xc7, 0x3c, 0x6a, 0x2d, 0xa4, 0x3c, 0x31, 0xe3, 0xae, 0x3c,
    0xe8, 0x05, 0x84, 0x3c, 0xfd, 0xe9, 0x00, 0x3d, 0x2d, 0xe0, 0xd7, 0x3c,
    0x27, 0x07, 0x0f, 0x3d, 0x64, 0x0c, 0x54, 0x3c, 0x29, 0xcb, 0xfb, 0x3c,
    0xc4, 0xe3, 0xc8, 0x3c, 0xfc, 0x88, 0x88, 0x3c, 0x9e, 0x43, 0x80, 0x3c,
    0xa8, 0xca, 0x60, 0x3c, 0x7c, 0xf0, 0xc3, 0x3c, 0xd5, 0x61, 0xb9, 0x3c,
    0x99, 0xe5, 0x91, 0x3c, 0x37, 0xb1, 0x97, 0x3c, 0xff, 0x4f, 0xfb, 0x3c,
    0xd0, 0xac, 0x18, 0x3d, 0x26, 0xc4, 0xa5, 0x3c, 0x15, 0x89, 0xc7, 0x3c,
    0xa0, 0x1e, 0x14, 0x3d, 0x9b, 0x2d, 0x96, 0x3c, 0xe8, 0x5b, 0x80, 0x3c,
    0x72, 0x16, 0x53, 0x3d, 0x64, 0x35, 0x97, 0x3c, 0xe0, 0x12, 0x9c, 0x3c,
    0x97, 0xd2, 0xe7, 0x3c, 0x5f, 0x9e, 0xde, 0x3c, 0x34, 0x55, 0x7e, 0x3c,
    0x9c, 0x33, 0xa8, 0x3c, 0xfc, 0x14, 0xcf, 0x3c, 0xdb, 0xec, 0x4d, 0x3c,
    0xac, 0xcb, 0xaa, 0x3c, 0xdf, 0x92, 0xc5, 0x3c, 0xaa, 0x32, 0xce, 0x3c,
    0xf1, 0x29, 0x80, 0x3c, 0x54, 0xe0, 0x8e, 0x3c, 0x1d, 0x85, 0xd0, 0x3c,
    0x23, 0xe2, 0xb9, 0x3c, 0x7a, 0x1a, 0x5d, 0x3c, 0x65, 0xbe, 0x93, 0x3c,
    0x1a, 0x98, 0x80, 0x3c, 0x6f, 0xb9, 0x82, 0x3c, 0xde, 0xba, 0x9d, 0x3c,
    0x8f, 0x06, 0x02, 0x3d, 0x1e, 0x5f, 0xa5, 0x3c, 0xc4, 0x34, 0x1e, 0x3d,
    0x15, 0xe0, 0x07, 0x3d, 0xd3, 0x63, 0x8f, 0x3c, 0x60, 0x2d, 0x09, 0x3d,
    0xdd, 0x1c, 0x96, 0x3c, 0xfa, 0xde, 0x26, 0x3d, 0xba, 0x02, 0xc4, 0x3c,
    0x6b, 0x91, 0xb5, 0x3c, 0x6b, 0x49, 0x04, 0x3d, 0x4d, 0x0c, 0xc7, 0x3c,
    0xa4, 0x74, 0x91, 0x3c, 0xc2, 0x30, 0xb9, 0x3c, 0xff, 0x27, 0x74, 0x3c,
    0x93, 0x42, 0xc2, 0x3c, 0x62, 0x69, 0xe8, 0x3c, 0x2c, 0xc6, 0x01, 0x3d,
    0x1b, 0x00, 0x00, 0x00, 0x73, 0x65, 0x71, 0x75, 0x65, 0x6e, 0x74, 0x69,
    0x61, 0x6c, 0x5f, 0x31, 0x2f, 0x64, 0x65, 0x6e, 0x73, 0x65, 0x5f, 0x31,
    0x2f, 0x4d, 0x61, 0x74, 0x4d, 0x75, 0x6c, 0x00, 0x02, 0x00, 0x00, 0x00,
    0x40, 0x00, 0x00, 0x00, 0x24, 0x00, 0x00, 0x00, 0x36, 0xf8, 0xff, 0xff,
    0x00, 0x00, 0x00, 0x01, 0x14, 0x00, 0x00, 0x00, 0x28, 0x03, 0x00, 0x00,
    0x06, 0x00, 0x00, 0x00, 0x00, 0x00, 0x00, 0x02, 0x58, 0x03, 0x00, 0x00,
    0x84, 0xf7, 0xff, 0xff, 0x08, 0x00, 0x00, 0x00, 0x0c, 0x02, 0x00, 0x00,
    0x40, 0x00, 0x00, 0x00, 0x00, 0x00, 0x00, 0x00, 0x00, 0x00, 0x00, 0x00,
    0x00, 0x00, 0x00, 0x00, 0x00, 0x00, 0x00, 0x00, 0x00, 0x00, 0x00, 0x00,
    0x00, 0x00, 0x00, 0x00, 0x00, 0x00, 0x00, 0x00, 0x00, 0x00, 0x00, 0x00,
    0x00, 0x00, 0x00, 0x00, 0x00, 0x00, 0x00, 0x00, 0x00, 0x00, 0x00, 0x00,
    0x00, 0x00, 0x00, 0x00, 0x00, 0x00, 0x00, 0x00, 0x00, 0x00, 0x00, 0x00,
    0x00, 0x00, 0x00, 0x00, 0x00, 0x00, 0x00, 0x00, 0x00, 0x00, 0x00, 0x00,
    0x00, 0x00, 0x00, 0x00, 0x00, 0x00, 0x00, 0x00, 0x00, 0x00, 0x00, 0x00,
    0x00, 0x00, 0x00, 0x00, 0x00, 0x00, 0x00, 0x00, 0x00, 0x00, 0x00, 0x00,
    0x00, 0x00, 0x00, 0x00, 0x00, 0x00, 0x00, 0x00, 0x00, 0x00, 0x00, 0x00,
    0x00, 0x00, 0x00, 0x00, 0x00, 0x00, 0x00, 0x00, 0x00, 0x00, 0x00, 0x00,
    0x00, 0x00, 0x00, 0x00, 0x00, 0x00, 0x00, 0x00, 0x00, 0x00, 0x00, 0x00,
    0x00, 0x00, 0x00, 0x00, 0x00, 0x00, 0x00, 0x00, 0x00, 0x00, 0x00, 0x00,
    0x00, 0x00, 0x00, 0x00, 0x00, 0x00, 0x00, 0x00, 0x00, 0x00, 0x00, 0x00,
    0x00, 0x00, 0x00, 0x00, 0x00, 0x00, 0x00, 0x00, 0x00, 0x00, 0x00, 0x00,
    0x00, 0x00, 0x00, 0x00, 0x00, 0x00, 0x00, 0x00, 0x00, 0x00, 0x00, 0x00,
    0x00, 0x00, 0x00, 0x00, 0x00, 0x00, 0x00, 0x00, 0x00, 0x00, 0x00, 0x00,
    0x00, 0x00, 0x00, 0x00, 0x00, 0x00, 0x00, 0x00, 0x00, 0x00, 0x00, 0x00,
    0x00, 0x00, 0x00, 0x00, 0x00, 0x00, 0x00, 0x00, 0x00, 0x00, 0x00, 0x00,
    0x00, 0x00, 0x00, 0x00, 0x00, 0x00, 0x00, 0x00, 0x00, 0x00, 0x00, 0x00,
    0x00, 0x00, 0x00, 0x00, 0x00, 0x00, 0x00, 0x00, 0x00, 0x00, 0x00, 0x00,
    0x00, 0x00, 0x00, 0x00, 0x00, 0x00, 0x00, 0x00, 0x00, 0x00, 0x00, 0x00,
    0x00, 0x00, 0x00, 0x00, 0x00, 0x00, 0x00, 0x00, 0x00, 0x00, 0x00, 0x00,
    0x00, 0x00, 0x00, 0x00, 0x00, 0x00, 0x00, 0x00, 0x00, 0x00, 0x00, 0x00,
    0x00, 0x00, 0x00, 0x00, 0x00, 0x00, 0x00, 0x00, 0x00, 0x00, 0x00, 0x00,
    0x00, 0x00, 0x00, 0x00, 0x00, 0x00, 0x00, 0x00, 0x00, 0x00, 0x00, 0x00,
    0x00, 0x00, 0x00, 0x00, 0x00, 0x00, 0x00, 0x00, 0x00, 0x00, 0x00, 0x00,
    0x00, 0x00, 0x00, 0x00, 0x00, 0x00, 0x00, 0x00, 0x00, 0x00, 0x00, 0x00,
    0x00, 0x00, 0x00, 0x00, 0x00, 0x00, 0x00, 0x00, 0x00, 0x00, 0x00, 0x00,
    0x00, 0x00, 0x00, 0x00, 0x00, 0x00, 0x00, 0x00, 0x00, 0x00, 0x00, 0x00,
    0x00, 0x00, 0x00, 0x00, 0x00, 0x00, 0x00, 0x00, 0x00, 0x00, 0x00, 0x00,
    0x00, 0x00, 0x00, 0x00, 0x00, 0x00, 0x00, 0x00, 0x00, 0x00, 0x00, 0x00,
    0x00, 0x00, 0x00, 0x00, 0x00, 0x00, 0x00, 0x00, 0x00, 0x00, 0x00, 0x00,
    0x00, 0x00, 0x00, 0x00, 0x00, 0x00, 0x00, 0x00, 0x00, 0x00, 0x00, 0x00,
    0x00, 0x00, 0x00, 0x00, 0x00, 0x00, 0x00, 0x00, 0x00, 0x00, 0x00, 0x00,
    0x00, 0x00, 0x00, 0x00, 0x00, 0x00, 0x00, 0x00, 0x00, 0x00, 0x00, 0x00,
    0x00, 0x00, 0x00, 0x00, 0x00, 0x00, 0x00, 0x00, 0x00, 0x00, 0x00, 0x00,
    0x00, 0x00, 0x00, 0x00, 0x00, 0x00, 0x00, 0x00, 0x00, 0x00, 0x00, 0x00,
    0x00, 0x00, 0x00, 0x00, 0x00, 0x00, 0x00, 0x00, 0x00, 0x00, 0x00, 0x00,
    0x00, 0x00, 0x00, 0x00, 0x00, 0x00, 0x00, 0x00, 0x00, 0x00, 0x00, 0x00,
    0x00, 0x00, 0x00, 0x00, 0x00, 0x00, 0x00, 0x00, 0x00, 0x00, 0x00, 0x00,
    0x00, 0x00, 0x00, 0x00, 0x00, 0x00, 0x00, 0x00, 0x00, 0x00, 0x00, 0x00,
    0x00, 0x00, 0x00, 0x00, 0x00, 0x00, 0x00, 0x00, 0x00, 0x00, 0x00, 0x00,
    0x00, 0x00, 0x00, 0x00, 0x00, 0x00, 0x00, 0x00, 0x00, 0x00, 0x00, 0x00,
    0x00, 0x00, 0x00, 0x00, 0x40, 0x00, 0x00, 0x00, 0x63, 0xd3, 0x21, 0x3a,
    0x28, 0x84, 0x2f, 0x3a, 0x61, 0xbf, 0x10, 0x3a, 0xad, 0x30, 0x1a, 0x3a,
    0x15, 0xcc, 0xe8, 0x39, 0xa3, 0x50, 0x63, 0x3a, 0xda, 0x53, 0x3e, 0x3a,
    0xc1, 0x33, 0x7c, 0x3a, 0x06, 0xf4, 0xba, 0x39, 0xa5, 0xfe, 0x5d, 0x3a,
    0x78, 0x1d, 0x31, 0x3a, 0xd7, 0xc0, 0xf0, 0x39, 0x46, 0x2b, 0xe2, 0x39,
    0x36, 0x30, 0xc6, 0x39, 0x2a, 0xc0, 0x2c, 0x3a, 0x5d, 0x71, 0x23, 0x3a,
    0x67, 0xa1, 0x00, 0x3a, 0x70, 0xbd, 0x05, 0x3a, 0x0e, 0x92, 0x5d, 0x3a,
    0x43, 0x9b, 0x86, 0x3a, 0xfa, 0x25, 0x12, 0x3a, 0xd0, 0xeb, 0x2f, 0x3a,
    0x17, 0x97, 0x82, 0x3a, 0xb4, 0x67, 0x04, 0x3a, 0x1a, 0x56, 0xe2, 0x39,
    0x2f, 0x1b, 0xba, 0x3a, 0x45, 0x50, 0x05, 0x3a, 0x5b, 0x9a, 0x09, 0x3a,
    0x21, 0x63, 0x4c, 0x3a, 0xc2, 0x45, 0x44, 0x3a, 0xc2, 0x3b, 0xe0, 0x39,
    0xa8, 0x4b, 0x14, 0x3a, 0x15, 0x93, 0x36, 0x3a, 0x00, 0x8e, 0xb5, 0x39,
    0x21, 0x95, 0x16, 0x3a, 0x0a, 0x31, 0x2e, 0x3a, 0x8c, 0xcb, 0x35, 0x3a,
    0x00, 0xfe, 0xe1, 0x39, 0x4b, 0xef, 0xfb, 0x39, 0xa5, 0xd7, 0x37, 0x3a,
    0x7c, 0xe2, 0x23, 0x3a, 0xc5, 0xef, 0xc2, 0x39, 0x3f, 0x42, 0x02, 0x3a,
    0x3f, 0xc0, 0xe2, 0x39, 0xd5, 0x81, 0xe6, 0x39, 0x2b, 0x10, 0x0b, 0x3a,
    0x6c, 0x46, 0x65, 0x3a, 0xe7, 0xcc, 0x11, 0x3a, 0xa4, 0x7b, 0x8b, 0x3a,
    0x04, 0x97, 0x6f, 0x3a, 0x2a, 0xd7, 0xfc, 0x39, 0xb6, 0xe2, 0x71, 0x3a,
    0xf1, 0x58, 0x04, 0x3a, 0x56, 0x1f, 0x93, 0x3a, 0x40, 0xd0, 0x2c, 0x3a,
    0x81, 0x14, 0x20, 0x3a, 0x21, 0x43, 0x69, 0x3a, 0xcd, 0x7d, 0x2f, 0x3a,
    0xd0, 0x3d, 0x00, 0x3a, 0x19, 0x46, 0x23, 0x3a, 0xde, 0x42, 0xd7, 0x39,
    0x22, 0x45, 0x2b, 0x3a, 0x13, 0xe8, 0x4c, 0x3a, 0xe3, 0xd4, 0x64, 0x3a,
    0x36, 0x00, 0x00, 0x00, 0x73, 0x65, 0x71, 0x75, 0x65, 0x6e, 0x74, 0x69,
    0x61, 0x6c, 0x5f, 0x31, 0x2f, 0x64, 0x65, 0x6e, 0x73, 0x65, 0x5f, 0x31,
    0x2f, 0x52, 0x65, 0x6c, 0x75, 0x3b, 0x73, 0x65, 0x71, 0x75, 0x65, 0x6e,
    0x74, 0x69, 0x61, 0x6c, 0x5f, 0x31, 0x2f, 0x64, 0x65, 0x6e, 0x73, 0x65,
    0x5f, 0x31, 0x2f, 0x42, 0x69, 0x61, 0x73, 0x41, 0x64, 0x64, 0x00, 0x00,
    0x01, 0x00, 0x00, 0x00, 0x40, 0x00, 0x00, 0x00, 0xae, 0xfb, 0xff, 0xff,
    0x00, 0x00, 0x00, 0x01, 0x14, 0x00, 0x00, 0x00, 0xa4, 0x01, 0x00, 0x00,
    0x05, 0x00, 0x00, 0x00, 0x00, 0x00, 0x00, 0x09, 0xbc, 0x01, 0x00, 0x00,
    0xfc, 0xfa, 0xff, 0xff, 0x08, 0x00, 0x00, 0x00, 0x08, 0x01, 0x00, 0x00,
    0x20, 0x00, 0x00, 0x00, 0x00, 0x00, 0x00, 0x00, 0x00, 0x00, 0x00, 0x00,
    0x00, 0x00, 0x00, 0x00, 0x00, 0x00, 0x00, 0x00, 0x00, 0x00, 0x00, 0x00,
    0x00, 0x00, 0x00, 0x00, 0x00, 0x00, 0x00, 0x00, 0x00, 0x00, 0x00, 0x00,
    0x00, 0x00, 0x00, 0x00, 0x00, 0x00, 0x00, 0x00, 0x00, 0x00, 0x00, 0x00,
    0x00, 0x00, 0x00, 0x00, 0x00, 0x00, 0x00, 0x00, 0x00, 0x00, 0x00, 0x00,
    0x00, 0x00, 0x00, 0x00, 0x00, 0x00, 0x00, 0x00, 0x00, 0x00, 0x00, 0x00,
    0x00, 0x00, 0x00, 0x00, 0x00, 0x00, 0x00, 0x00, 0x00, 0x00, 0x00, 0x00,
    0x00, 0x00, 0x00, 0x00, 0x00, 0x00, 0x00, 0x00, 0x00, 0x00, 0x00, 0x00,
    0x00, 0x00, 0x00, 0x00, 0x00, 0x00, 0x00, 0x00, 0x00, 0x00, 0x00, 0x00,
    0x00, 0x00, 0x00, 0x00, 0x00, 0x00, 0x00, 0x00, 0x00, 0x00, 0x00, 0x00,
    0x00, 0x00, 0x00, 0x00, 0x00, 0x00, 0x00, 0x00, 0x00, 0x00, 0x00, 0x00,
    0x00, 0x00, 0x00, 0x00, 0x00, 0x00, 0x00, 0x00, 0x00, 0x00, 0x00, 0x00,
    0x00, 0x00, 0x00, 0x00, 0x00, 0x00, 0x00, 0x00, 0x00, 0x00, 0x00, 0x00,
    0x00, 0x00, 0x00, 0x00, 0x00, 0x00, 0x00, 0x00, 0x00, 0x00, 0x00, 0x00,
    0x00, 0x00, 0x00, 0x00, 0x00, 0x00, 0x00, 0x00, 0x00, 0x00, 0x00, 0x00,
    0x00, 0x00, 0x00, 0x00, 0x00, 0x00, 0x00, 0x00, 0x00, 0x00, 0x00, 0x00,
    0x00, 0x00, 0x00, 0x00, 0x00, 0x00, 0x00, 0x00, 0x00, 0x00, 0x00, 0x00,
    0x00, 0x00, 0x00, 0x00, 0x00, 0x00, 0x00, 0x00, 0x00, 0x00, 0x00, 0x00,
    0x00, 0x00, 0x00, 0x00, 0x00, 0x00, 0x00, 0x00, 0x00, 0x00, 0x00, 0x00,
    0x00, 0x00, 0x00, 0x00, 0x00, 0x00, 0x00, 0x00, 0x00, 0x00, 0x00, 0x00,
    0x00, 0x00, 0x00, 0x00, 0x00, 0x00, 0x00, 0x00, 0x00, 0x00, 0x00, 0x00,
    0x00, 0x00, 0x00, 0x00, 0x00, 0x00, 0x00, 0x00, 0x20, 0x00, 0x00, 0x00,
    0xf5, 0xa3, 0x70, 0x3c, 0x9c, 0xca, 0x81, 0x3c, 0xd2, 0x20, 0x8f, 0x3c,
    0xf8, 0x13, 0x8b, 0x3c, 0xdb, 0x41, 0x11, 0x3b, 0x57, 0x0d, 0x80, 0x3c,
    0x3f, 0xfb, 0x6f, 0x3c, 0x5f, 0xfb, 0x6d, 0x3c, 0x1d, 0xa0, 0x7f, 0x3c,
    0x71, 0x11, 0x7b, 0x3c, 0x1f, 0x98, 0x25, 0x3b, 0xe7, 0xf0, 0x0c, 0x3b,
    0xee, 0xe2, 0x0a, 0x3b, 0x7a, 0x12, 0x1d, 0x3b, 0x87, 0xf3, 0x84, 0x3c,
    0x4b, 0x38, 0x10, 0x3b, 0x42, 0x4e, 0x19, 0x3b, 0x5b, 0x9e, 0x71, 0x3c,
    0xd4, 0x9c, 0x5f, 0x3c, 0x80, 0xfc, 0x90, 0x3c, 0x11, 0xb7, 0x85, 0x3c,
    0xf7, 0x21, 0xbc, 0x3c, 0x0b, 0x0f, 0x0b, 0x3b, 0x14, 0x4f, 0x66, 0x3c,
    0x6d, 0x71, 0x13, 0x3b, 0xc8, 0x89, 0x86, 0x3c, 0x2e, 0x9a, 0x87, 0x3c,
    0xea, 0x8e, 0x58, 0x3c, 0xf2, 0xde, 0x7f, 0x3c, 0x5d, 0xaf, 0x72, 0x3c,
    0xb4, 0x49, 0x8f, 0x3c, 0xdd, 0x0b, 0x10, 0x3d, 0x1d, 0x00, 0x00, 0x00,
    0x73, 0x65, 0x71, 0x75, 0x65, 0x6e, 0x74, 0x69, 0x61, 0x6c, 0x5f, 0x31,
    0x2f, 0x64, 0x65, 0x6e, 0x73, 0x65, 0x5f, 0x31, 0x5f, 0x32, 0x2f, 0x4d,
    0x61, 0x74, 0x4d, 0x75, 0x6c, 0x00, 0x00, 0x00, 0x02, 0x00, 0x00, 0x00,
    0x20, 0x00, 0x00, 0x00, 0x40, 0x00, 0x00, 0x00, 0x8e, 0xfd, 0xff, 0xff,
    0x00, 0x00, 0x00, 0x01, 0x14, 0x00, 0x00, 0x00, 0xa4, 0x01, 0x00, 0x00,
    0x04, 0x00, 0x00, 0x00, 0x00, 0x00, 0x00, 0x02, 0xd8, 0x01, 0x00, 0x00,
    0xdc, 0xfc, 0xff, 0xff, 0x08, 0x00, 0x00, 0x00, 0x08, 0x01, 0x00, 0x00,
    0x20, 0x00, 0x00, 0x00, 0x00, 0x00, 0x00, 0x00, 0x00, 0x00, 0x00, 0x00,
    0x00, 0x00, 0x00, 0x00, 0x00, 0x00, 0x00, 0x00, 0x00, 0x00, 0x00, 0x00,
    0x00, 0x00, 0x00, 0x00, 0x00, 0x00, 0x00, 0x00, 0x00, 0x00, 0x00, 0x00,
    0x00, 0x00, 0x00, 0x00, 0x00, 0x00, 0x00, 0x00, 0x00, 0x00, 0x00, 0x00,
    0x00, 0x00, 0x00, 0x00, 0x00, 0x00, 0x00, 0x00, 0x00, 0x00, 0x00, 0x00,
    0x00, 0x00, 0x00, 0x00, 0x00, 0x00, 0x00, 0x00, 0x00, 0x00, 0x00, 0x00,
    0x00, 0x00, 0x00, 0x00, 0x00, 0x00, 0x00, 0x00, 0x00, 0x00, 0x00, 0x00,
    0x00, 0x00, 0x00, 0x00, 0x00, 0x00, 0x00, 0x00, 0x00, 0x00, 0x00, 0x00,
    0x00, 0x00, 0x00, 0x00, 0x00, 0x00, 0x00, 0x00, 0x00, 0x00, 0x00, 0x00,
    0x00, 0x00, 0x00, 0x00, 0x00, 0x00, 0x00, 0x00, 0x00, 0x00, 0x00, 0x00,
    0x00, 0x00, 0x00, 0x00, 0x00, 0x00, 0x00, 0x00, 0x00, 0x00, 0x00, 0x00,
    0x00, 0x00, 0x00, 0x00, 0x00, 0x00, 0x00, 0x00, 0x00, 0x00, 0x00, 0x00,
    0x00, 0x00, 0x00, 0x00, 0x00, 0x00, 0x00, 0x00, 0x00, 0x00, 0x00, 0x00,
    0x00, 0x00, 0x00, 0x00, 0x00, 0x00, 0x00, 0x00, 0x00, 0x00, 0x00, 0x00,
    0x00, 0x00, 0x00, 0x00, 0x00, 0x00, 0x00, 0x00, 0x00, 0x00, 0x00, 0x00,
    0x00, 0x00, 0x00, 0x00, 0x00, 0x00, 0x00, 0x00, 0x00, 0x00, 0x00, 0x00,
    0x00, 0x00, 0x00, 0x00, 0x00, 0x00, 0x00, 0x00, 0x00, 0x00, 0x00, 0x00,
    0x00, 0x00, 0x00, 0x00, 0x00, 0x00, 0x00, 0x00, 0x00, 0x00, 0x00, 0x00,
    0x00, 0x00, 0x00, 0x00, 0x00, 0x00, 0x00, 0x00, 0x00, 0x00, 0x00, 0x00,
    0x00, 0x00, 0x00, 0x00, 0x00, 0x00, 0x00, 0x00, 0x00, 0x00, 0x00, 0x00,
    0x00, 0x00, 0x00, 0x00, 0x00, 0x00, 0x00, 0x00, 0x00, 0x00, 0x00, 0x00,
    0x00, 0x00, 0x00, 0x00, 0x00, 0x00, 0x00, 0x00, 0x20, 0x00, 0x00, 0x00,
    0xab, 0x9a, 0xca, 0x3a, 0x72, 0x8d, 0xda, 0x3a, 0x8c, 0x02, 0xf1, 0x3a,
    0x9e, 0x30, 0xea, 0x3a, 0x51, 0x98, 0x74, 0x39, 0xaa, 0x9f, 0xd7, 0x3a,
    0xa0, 0x0c, 0xca, 0x3a, 0xa9, 0x5d, 0xc8, 0x3a, 0x79, 0x38, 0xd7, 0x3a,
    0x35, 0x62, 0xd3, 0x3a, 0x82, 0x6b, 0x8b, 0x39, 0xb7, 0x53, 0x6d, 0x39,
    0x0b, 0xde, 0x69, 0x39, 0xb3, 0x3e, 0x84, 0x39, 0x8f, 0xdf, 0xdf, 0x3a,
    0x25, 0xd9, 0x72, 0x39, 0xe3, 0x12, 0x81, 0x39, 0x7d, 0x6d, 0xcb, 0x3a,
    0x8e, 0x44, 0xbc, 0x3a, 0x88, 0x23, 0xf4, 0x3a, 0xd3, 0x28, 0xe1, 0x3a,
    0x5b, 0x65, 0x1e, 0x3b, 0x53, 0x28, 0x6a, 0x39, 0xd9, 0xe7, 0xc1, 0x3a,
    0x90, 0x46, 0x78, 0x39, 0xa4, 0x8b, 0xe2, 0x3a, 0x53, 0x56, 0xe4, 0x3a,
    0x17, 0x54, 0xb6, 0x3a, 0x60, 0x6d, 0xd7, 0x3a, 0x58, 0x53, 0xcc, 0x3a,
    0x63, 0x47, 0xf1, 0x3a, 0x54, 0x8e, 0x72, 0x3b, 0x3a, 0x00, 0x00, 0x00,
    0x73, 0x65, 0x71, 0x75, 0x65, 0x6e, 0x74, 0x69, 0x61, 0x6c, 0x5f, 0x31,
    0x2f, 0x64, 0x65, 0x6e, 0x73, 0x65, 0x5f, 0x31, 0x5f, 0x32, 0x2f, 0x52,
    0x65, 0x6c, 0x75, 0x3b, 0x73, 0x65, 0x71, 0x75, 0x65, 0x6e, 0x74, 0x69,
    0x61, 0x6c, 0x5f, 0x31, 0x2f, 0x64, 0x65, 0x6e, 0x73, 0x65, 0x5f, 0x31,
    0x5f, 0x32, 0x2f, 0x42, 0x69, 0x61, 0x73, 0x41, 0x64, 0x64, 0x00, 0x00,
    0x01, 0x00, 0x00, 0x00, 0x20, 0x00, 0x00, 0x00, 0x86, 0xff, 0xff, 0xff,
    0x00, 0x00, 0x00, 0x01, 0x14, 0x00, 0x00, 0x00, 0x3c, 0x00, 0x00, 0x00,
    0x03, 0x00, 0x00, 0x00, 0x00, 0x00, 0x00, 0x09, 0x54, 0x00, 0x00, 0x00,
    0xd4, 0xfe, 0xff, 0xff, 0x08, 0x00, 0x00, 0x00, 0x18, 0x00, 0x00, 0x00,
    0x02, 0x00, 0x00, 0x00, 0x00, 0x00, 0x00, 0x00, 0x00, 0x00, 0x00, 0x00,
    0x00, 0x00, 0x00, 0x00, 0x00, 0x00, 0x00, 0x00, 0x02, 0x00, 0x00, 0x00,
    0x59, 0x2b, 0x1b, 0x3d, 0xbc, 0x51, 0x1c, 0x3d, 0x1d, 0x00, 0x00, 0x00,
    0x73, 0x65, 0x71, 0x75, 0x65, 0x6e, 0x74, 0x69, 0x61, 0x6c, 0x5f, 0x31,
    0x2f, 0x64, 0x65, 0x6e, 0x73, 0x65, 0x5f, 0x32, 0x5f, 0x31, 0x2f, 0x4d,
    0x61, 0x74, 0x4d, 0x75, 0x6c, 0x00, 0x00, 0x00, 0x02, 0x00, 0x00, 0x00,
    0x02, 0x00, 0x00, 0x00, 0x20, 0x00, 0x00, 0x00, 0x00, 0x00, 0x16, 0x00,
    0x1c, 0x00, 0x18, 0x00, 0x17, 0x00, 0x10, 0x00, 0x0c, 0x00, 0x08, 0x00,
    0x00, 0x00, 0x00, 0x00, 0x00, 0x00, 0x07, 0x00, 0x16, 0x00, 0x00, 0x00,
    0x00, 0x00, 0x00, 0x01, 0x14, 0x00, 0x00, 0x00, 0x3c, 0x00, 0x00, 0x00,
    0x02, 0x00, 0x00, 0x00, 0x00, 0x00, 0x00, 0x02, 0x54, 0x00, 0x00, 0x00,
    0x64, 0xff, 0xff, 0xff, 0x08, 0x00, 0x00, 0x00, 0x18, 0x00, 0x00, 0x00,
    0x02, 0x00, 0x00, 0x00, 0x00, 0x00, 0x00, 0x00, 0x00, 0x00, 0x00, 0x00,
    0x00, 0x00, 0x00, 0x00, 0x00, 0x00, 0x00, 0x00, 0x02, 0x00, 0x00, 0x00,
    0x05, 0x16, 0x7c, 0x3d, 0x46, 0xf4, 0x7d, 0x3d, 0x1e, 0x00, 0x00, 0x00,
    0x73, 0x65, 0x71, 0x75, 0x65, 0x6e, 0x74, 0x69, 0x61, 0x6c, 0x5f, 0x31,
    0x2f, 0x64, 0x65, 0x6e, 0x73, 0x65, 0x5f, 0x32, 0x5f, 0x31, 0x2f, 0x42,
    0x69, 0x61, 0x73, 0x41, 0x64, 0x64, 0x00, 0x00, 0x01, 0x00, 0x00, 0x00,
    0x02, 0x00, 0x00, 0x00, 0x00, 0x00, 0x16, 0x00, 0x20, 0x00, 0x1c, 0x00,
    0x1b, 0x00, 0x14, 0x00, 0x10, 0x00, 0x0c, 0x00, 0x00, 0x00, 0x00, 0x00,
    0x08, 0x00, 0x07, 0x00, 0x16, 0x00, 0x00, 0x00, 0x00, 0x00, 0x00, 0x01,
    0x18, 0x00, 0x00, 0x00, 0x2c, 0x00, 0x00, 0x00, 0x4c, 0x00, 0x00, 0x00,
    0x01, 0x00, 0x00, 0x00, 0x00, 0x00, 0x00, 0x09, 0x64, 0x00, 0x00, 0x00,
    0x02, 0x00, 0x00, 0x00, 0xff, 0xff, 0xff, 0xff, 0x24, 0x00, 0x00, 0x00,
    0x0c, 0x00, 0x0c, 0x00, 0x00, 0x00, 0x00, 0x00, 0x08, 0x00, 0x04, 0x00,
    0x0c, 0x00, 0x00, 0x00, 0x08, 0x00, 0x00, 0x00, 0x14, 0x00, 0x00, 0x00,
    0x01, 0x00, 0x00, 0x00, 0x98, 0xff, 0xff, 0xff, 0xff, 0xff, 0xff, 0xff,
    0x00, 0x00, 0x00, 0x00, 0x01, 0x00, 0x00, 0x00, 0x0b, 0xb4, 0xe1, 0x3c,
    0x1e, 0x00, 0x00, 0x00, 0x73, 0x65, 0x72, 0x76, 0x69, 0x6e, 0x67, 0x5f,
    0x64, 0x65, 0x66, 0x61, 0x75, 0x6c, 0x74, 0x5f, 0x6b, 0x65, 0x72, 0x61,
    0x73, 0x5f, 0x74, 0x65, 0x6e, 0x73, 0x6f, 0x72, 0x3a, 0x30, 0x00, 0x00,
    0x02, 0x00, 0x00, 0x00, 0x01, 0x00, 0x00, 0x00, 0x24, 0x00, 0x00, 0x00,
    0x01, 0x00, 0x00, 0x00, 0x10, 0x00, 0x00, 0x00, 0x0c, 0x00, 0x10, 0x00,
    0x0f, 0x00, 0x00, 0x00, 0x08, 0x00, 0x04, 0x00, 0x0c, 0x00, 0x00, 0x00,
    0x09, 0x00, 0x00, 0x00, 0x04, 0x00, 0x00, 0x00, 0x00, 0x00, 0x00, 0x09,
};

const int g_model_len = 9408;
